#ifndef MODEL_DATA_H
#define MODEL_DATA_H


// This is a TensorFlow Lite model file that has been converted into a C data
// array using the tensorflow.lite.util.convert_bytes_to_c_source() function.
// This form is useful for compiling into a binary for devices that don't have a
// file system.


// We need to keep the data array aligned on some architectures.
#ifdef __has_attribute
#define HAVE_ATTRIBUTE(x) __has_attribute(x)
#else
#define HAVE_ATTRIBUTE(x) 0
#endif
#if HAVE_ATTRIBUTE(aligned) || (defined(__GNUC__) && !defined(__clang__))
#define DATA_ALIGN_ATTRIBUTE __attribute__((aligned(4)))
#else
#define DATA_ALIGN_ATTRIBUTE
#endif

const unsigned char model[] DATA_ALIGN_ATTRIBUTE = {
    0x20, 0x00, 0x00, 0x00, 0x54, 0x46, 0x4c, 0x33, 0x00, 0x00, 0x00, 0x00, 0x14,
    0x00, 0x20, 0x00, 0x04, 0x00, 0x08, 0x00, 0x0c, 0x00, 0x10, 0x00, 0x14, 0x00,
    0x00, 0x00, 0x18, 0x00, 0x1c, 0x00, 0x14, 0x00, 0x00, 0x00, 0x03, 0x00, 0x00,
    0x00, 0x18, 0x00, 0x00, 0x00, 0x28, 0x00, 0x00, 0x00, 0xc4, 0x00, 0x00, 0x00,
    0x28, 0x00, 0x00, 0x00, 0x6c, 0x00, 0x00, 0x00, 0x64, 0x00, 0x00, 0x00, 0x04,
    0x00, 0x00, 0x00, 0xec, 0x12, 0x00, 0x00, 0x30, 0x0f, 0x00, 0x00, 0x74, 0x09,
    0x00, 0x00, 0x74, 0x01, 0x00, 0x00, 0x01, 0x00, 0x00, 0x00, 0xc0, 0x00, 0x00,
    0x00, 0x10, 0x00, 0x00, 0x00, 0x1c, 0x14, 0x00, 0x00, 0x18, 0x14, 0x00, 0x00,
    0x48, 0x13, 0x00, 0x00, 0x10, 0x14, 0x00, 0x00, 0x78, 0x11, 0x00, 0x00, 0x64,
    0x10, 0x00, 0x00, 0xcc, 0x0f, 0x00, 0x00, 0x00, 0x14, 0x00, 0x00, 0x08, 0x0a,
    0x00, 0x00, 0xf8, 0x13, 0x00, 0x00, 0x28, 0x04, 0x00, 0x00, 0xf0, 0x13, 0x00,
    0x00, 0x40, 0x02, 0x00, 0x00, 0xe8, 0x13, 0x00, 0x00, 0xe4, 0x13, 0x00, 0x00,
    0x3c, 0x00, 0x00, 0x00, 0x00, 0x00, 0x00, 0x00, 0x01, 0x00, 0x00, 0x00, 0x0c,
    0x00, 0x00, 0x00, 0x08, 0x00, 0x0c, 0x00, 0x04, 0x00, 0x08, 0x00, 0x08, 0x00,
    0x00, 0x00, 0x08, 0x00, 0x00, 0x00, 0x0f, 0x00, 0x00, 0x00, 0x13, 0x00, 0x00,
    0x00, 0x6d, 0x69, 0x6e, 0x5f, 0x72, 0x75, 0x6e, 0x74, 0x69, 0x6d, 0x65, 0x5f,
    0x76, 0x65, 0x72, 0x73, 0x69, 0x6f, 0x6e, 0x00, 0x2e, 0xed, 0xff, 0xff, 0x04,
    0x00, 0x00, 0x00, 0x10, 0x00, 0x00, 0x00, 0x31, 0x2e, 0x31, 0x34, 0x2e, 0x30,
    0x00, 0x00, 0x00, 0x00, 0x00, 0x00, 0x00, 0x00, 0x00, 0x00, 0x0f, 0x00, 0x00,
    0x00, 0x4d, 0x4c, 0x49, 0x52, 0x20, 0x43, 0x6f, 0x6e, 0x76, 0x65, 0x72, 0x74,
    0x65, 0x64, 0x2e, 0x00, 0x00, 0x00, 0x0e, 0x00, 0x18, 0x00, 0x04, 0x00, 0x08,
    0x00, 0x0c, 0x00, 0x10, 0x00, 0x14, 0x00, 0x0e, 0x00, 0x00, 0x00, 0x14, 0x00,
    0x00, 0x00, 0x4c, 0x00, 0x00, 0x00, 0x50, 0x00, 0x00, 0x00, 0x54, 0x00, 0x00,
    0x00, 0x6c, 0x00, 0x00, 0x00, 0x0e, 0x00, 0x00, 0x00, 0x04, 0x13, 0x00, 0x00,
    0x9c, 0x12, 0x00, 0x00, 0x04, 0x12, 0x00, 0x00, 0x34, 0x11, 0x00, 0x00, 0x20,
    0x10, 0x00, 0x00, 0x0c, 0x0f, 0x00, 0x00, 0x3c, 0x0e, 0x00, 0x00, 0x44, 0x0d,
    0x00, 0x00, 0x7c, 0x08, 0x00, 0x00, 0x64, 0x07, 0x00, 0x00, 0x9c, 0x02, 0x00,
    0x00, 0x9c, 0x01, 0x00, 0x00, 0xd8, 0x00, 0x00, 0x00, 0x6c, 0x00, 0x00, 0x00,
    0x01, 0x00, 0x00, 0x00, 0x00, 0x00, 0x00, 0x00, 0x01, 0x00, 0x00, 0x00, 0x0d,
    0x00, 0x00, 0x00, 0x06, 0x00, 0x00, 0x00, 0x88, 0x11, 0x00, 0x00, 0xd0, 0x0d,
    0x00, 0x00, 0xf8, 0x07, 0x00, 0x00, 0x34, 0x02, 0x00, 0x00, 0x78, 0x00, 0x00,
    0x00, 0x10, 0x00, 0x00, 0x00, 0x04, 0x00, 0x00, 0x00, 0x6d, 0x61, 0x69, 0x6e,
    0x00, 0x00, 0x00, 0x00, 0x5a, 0xf2, 0xff, 0xff, 0x03, 0x00, 0x00, 0x00, 0x10,
    0x00, 0x00, 0x00, 0x04, 0x00, 0x00, 0x00, 0x01, 0x00, 0x00, 0x00, 0x0d, 0x00,
    0x00, 0x00, 0x01, 0x00, 0x00, 0x00, 0x0c, 0x00, 0x00, 0x00, 0xa0, 0xee, 0xff,
    0xff, 0x06, 0x00, 0x00, 0x00, 0x00, 0x00, 0x00, 0x06, 0x02, 0x00, 0x00, 0x00,
    0xaa, 0xed, 0xff, 0xff, 0x10, 0x00, 0x00, 0x00, 0x0e, 0x00, 0x00, 0x00, 0x14,
    0x00, 0x00, 0x00, 0x20, 0x00, 0x00, 0x00, 0x02, 0x00, 0x00, 0x00, 0x01, 0x00,
    0x00, 0x00, 0x01, 0x00, 0x00, 0x00, 0x08, 0x00, 0x00, 0x00, 0x49, 0x64, 0x65,
    0x6e, 0x74, 0x69, 0x74, 0x79, 0x00, 0x00, 0x00, 0x00, 0x8c, 0xed, 0xff, 0xff,
    0x56, 0xfe, 0xff, 0xff, 0x00, 0x00, 0x00, 0x08, 0x02, 0x00, 0x00, 0x00, 0x18,
    0x00, 0x00, 0x00, 0x0c, 0x00, 0x00, 0x00, 0x04, 0x00, 0x00, 0x00, 0xa8, 0xed,
    0xff, 0xff, 0x01, 0x00, 0x00, 0x00, 0x0c, 0x00, 0x00, 0x00, 0x03, 0x00, 0x00,
    0x00, 0x0a, 0x00, 0x00, 0x00, 0x0b, 0x00, 0x00, 0x00, 0x05, 0x00, 0x00, 0x00,
    0x76, 0xee, 0xff, 0xff, 0x00, 0x00, 0x00, 0x09, 0x10, 0x00, 0x00, 0x00, 0x0d,
    0x00, 0x00, 0x00, 0x14, 0x00, 0x00, 0x00, 0x60, 0x00, 0x00, 0x00, 0x02, 0x00,
    0x00, 0x00, 0x01, 0x00, 0x00, 0x00, 0x01, 0x00, 0x00, 0x00, 0x4a, 0x00, 0x00,
    0x00, 0x73, 0x65, 0x71, 0x75, 0x65, 0x6e, 0x74, 0x69, 0x61, 0x6c, 0x5f, 0x33,
    0x37, 0x2f, 0x71, 0x75, 0x61, 0x6e, 0x74, 0x5f, 0x64, 0x65, 0x6e, 0x73, 0x65,
    0x5f, 0x31, 0x31, 0x33, 0x2f, 0x4d, 0x61, 0x74, 0x4d, 0x75, 0x6c, 0x3b, 0x73,
    0x65, 0x71, 0x75, 0x65, 0x6e, 0x74, 0x69, 0x61, 0x6c, 0x5f, 0x33, 0x37, 0x2f,
    0x71, 0x75, 0x61, 0x6e, 0x74, 0x5f, 0x64, 0x65, 0x6e, 0x73, 0x65, 0x5f, 0x31,
    0x31, 0x33, 0x2f, 0x42, 0x69, 0x61, 0x73, 0x41, 0x64, 0x64, 0x00, 0x00, 0x34,
    0xef, 0xff, 0xff, 0x08, 0x00, 0x00, 0x00, 0x0c, 0x00, 0x00, 0x00, 0x01, 0x00,
    0x00, 0x00, 0x15, 0xc5, 0xb2, 0x3b, 0x01, 0x00, 0x00, 0x00, 0xff, 0xff, 0xff,
    0xff, 0xff, 0xff, 0xff, 0xff, 0x26, 0xef, 0xff, 0xff, 0x04, 0x00, 0x00, 0x00,
    0x20, 0x00, 0x00, 0x00, 0xd3, 0x07, 0x2f, 0x2d, 0x33, 0x8c, 0xca, 0xbe, 0x9b,
    0x3a, 0x09, 0xd9, 0xc3, 0xa7, 0x2b, 0x6d, 0xdb, 0x09, 0x10, 0x6c, 0x19, 0x44,
    0x89, 0x46, 0xcd, 0x73, 0x60, 0x81, 0xf1, 0x07, 0x4d, 0x46, 0x36, 0xef, 0xff,
    0xff, 0x00, 0x00, 0x00, 0x09, 0x10, 0x00, 0x00, 0x00, 0x0c, 0x00, 0x00, 0x00,
    0x14, 0x00, 0x00, 0x00, 0x80, 0x00, 0x00, 0x00, 0x02, 0x00, 0x00, 0x00, 0x01,
    0x00, 0x00, 0x00, 0x20, 0x00, 0x00, 0x00, 0x69, 0x00, 0x00, 0x00, 0x73, 0x65,
    0x71, 0x75, 0x65, 0x6e, 0x74, 0x69, 0x61, 0x6c, 0x5f, 0x33, 0x37, 0x2f, 0x71,
    0x75, 0x61, 0x6e, 0x74, 0x5f, 0x64, 0x65, 0x6e, 0x73, 0x65, 0x5f, 0x31, 0x31,
    0x33, 0x2f, 0x4d, 0x61, 0x74, 0x4d, 0x75, 0x6c, 0x3b, 0x73, 0x65, 0x71, 0x75,
    0x65, 0x6e, 0x74, 0x69, 0x61, 0x6c, 0x5f, 0x33, 0x37, 0x2f, 0x71, 0x75, 0x61,
    0x6e, 0x74, 0x5f, 0x64, 0x65, 0x6e, 0x73, 0x65, 0x5f, 0x31, 0x31, 0x33, 0x2f,
    0x4c, 0x61, 0x73, 0x74, 0x56, 0x61, 0x6c, 0x75, 0x65, 0x51, 0x75, 0x61, 0x6e,
    0x74, 0x2f, 0x46, 0x61, 0x6b, 0x65, 0x51, 0x75, 0x61, 0x6e, 0x74, 0x57, 0x69,
    0x74, 0x68, 0x4d, 0x69, 0x6e, 0x4d, 0x61, 0x78, 0x56, 0x61, 0x72, 0x73, 0x00,
    0x00, 0x00, 0x14, 0xf0, 0xff, 0xff, 0x08, 0x00, 0x00, 0x00, 0x0c, 0x00, 0x00,
    0x00, 0x01, 0x00, 0x00, 0x00, 0xec, 0xa2, 0x64, 0x3b, 0x01, 0x00, 0x00, 0x00,
    0x00, 0x00, 0x00, 0x00, 0x00, 0x00, 0x00, 0x00, 0x00, 0x00, 0x0e, 0x00, 0x18,
    0x00, 0x08, 0x00, 0x0c, 0x00, 0x10, 0x00, 0x07, 0x00, 0x14, 0x00, 0x0e, 0x00,
    0x00, 0x00, 0x00, 0x00, 0x00, 0x08, 0x02, 0x00, 0x00, 0x00, 0x1c, 0x00, 0x00,
    0x00, 0x10, 0x00, 0x00, 0x00, 0x04, 0x00, 0x00, 0x00, 0x3e, 0xfa, 0xff, 0xff,
    0x00, 0x00, 0x00, 0x01, 0x01, 0x00, 0x00, 0x00, 0x0a, 0x00, 0x00, 0x00, 0x03,
    0x00, 0x00, 0x00, 0x08, 0x00, 0x00, 0x00, 0x09, 0x00, 0x00, 0x00, 0x04, 0x00,
    0x00, 0x00, 0x32, 0xf0, 0xff, 0xff, 0x00, 0x00, 0x00, 0x09, 0x10, 0x00, 0x00,
    0x00, 0x0b, 0x00, 0x00, 0x00, 0x14, 0x00, 0x00, 0x00, 0x84, 0x00, 0x00, 0x00,
    0x02, 0x00, 0x00, 0x00, 0x01, 0x00, 0x00, 0x00, 0x20, 0x00, 0x00, 0x00, 0x6d,
    0x00, 0x00, 0x00, 0x73, 0x65, 0x71, 0x75, 0x65, 0x6e, 0x74, 0x69, 0x61, 0x6c,
    0x5f, 0x33, 0x37, 0x2f, 0x71, 0x75, 0x61, 0x6e, 0x74, 0x5f, 0x64, 0x65, 0x6e,
    0x73, 0x65, 0x5f, 0x31, 0x31, 0x32, 0x2f, 0x4d, 0x61, 0x74, 0x4d, 0x75, 0x6c,
    0x3b, 0x73, 0x65, 0x71, 0x75, 0x65, 0x6e, 0x74, 0x69, 0x61, 0x6c, 0x5f, 0x33,
    0x37, 0x2f, 0x71, 0x75, 0x61, 0x6e, 0x74, 0x5f, 0x64, 0x65, 0x6e, 0x73, 0x65,
    0x5f, 0x31, 0x31, 0x32, 0x2f, 0x42, 0x69, 0x61, 0x73, 0x41, 0x64, 0x64, 0x3b,
    0x73, 0x65, 0x71, 0x75, 0x65, 0x6e, 0x74, 0x69, 0x61, 0x6c, 0x5f, 0x33, 0x37,
    0x2f, 0x71, 0x75, 0x61, 0x6e, 0x74, 0x5f, 0x64, 0x65, 0x6e, 0x73, 0x65, 0x5f,
    0x31, 0x31, 0x32, 0x2f, 0x52, 0x65, 0x6c, 0x75, 0x00, 0x00, 0x00, 0x14, 0xf1,
    0xff, 0xff, 0x08, 0x00, 0x00, 0x00, 0x0c, 0x00, 0x00, 0x00, 0x01, 0x00, 0x00,
    0x00, 0xdd, 0x27, 0xb4, 0x3b, 0x01, 0x00, 0x00, 0x00, 0xa7, 0xff, 0xff, 0xff,
    0xff, 0xff, 0xff, 0xff, 0x06, 0xf1, 0xff, 0xff, 0x04, 0x00, 0x00, 0x00, 0x00,
    0x04, 0x00, 0x00, 0x1f, 0xe7, 0xe1, 0x1d, 0x11, 0xdf, 0x33, 0x3f, 0x3b, 0x1b,
    0x19, 0x43, 0x20, 0xc5, 0xed, 0x3e, 0xf3, 0xf6, 0xdb, 0x3c, 0x16, 0xf9, 0x34,
    0x24, 0xe8, 0x13, 0x43, 0xde, 0x16, 0x16, 0x14, 0xcf, 0xb3, 0x0c, 0xf6, 0xda,
    0xef, 0xf0, 0x21, 0xee, 0xe9, 0xf6, 0x32, 0xf6, 0xda, 0x04, 0xc8, 0x08, 0x21,
    0xf6, 0x30, 0xe6, 0xcb, 0x34, 0x12, 0x17, 0xec, 0x0c, 0xf4, 0x43, 0xfe, 0x36,
    0xbf, 0x0d, 0xe9, 0xcd, 0xb0, 0xe9, 0x41, 0x30, 0x1f, 0x10, 0x2a, 0x11, 0x13,
    0x36, 0xc7, 0xfa, 0xdf, 0x3a, 0x4b, 0x28, 0xf5, 0xbe, 0xf2, 0x18, 0xce, 0xfa,
    0xed, 0x10, 0x2e, 0x47, 0xee, 0xc7, 0xfb, 0x29, 0x3c, 0x01, 0x2a, 0xcd, 0x0c,
    0x00, 0xf8, 0x0c, 0x33, 0xd1, 0xbb, 0xc8, 0x3c, 0x17, 0xd4, 0xcd, 0x24, 0xf4,
    0x37, 0x04, 0x37, 0x0a, 0xbd, 0x3a, 0x1b, 0x0f, 0x35, 0xf5, 0xcc, 0x9b, 0x34,
    0xc6, 0x1f, 0x13, 0xf7, 0xfe, 0xf2, 0x10, 0x31, 0xbd, 0x06, 0xea, 0x3a, 0xe4,
    0xd9, 0xf2, 0xe5, 0xcf, 0x0a, 0x27, 0xfe, 0xc1, 0x38, 0x2e, 0x2f, 0x29, 0x18,
    0x1f, 0x07, 0xa3, 0xc2, 0x05, 0xd3, 0xc3, 0xe1, 0x16, 0x0c, 0x19, 0xf3, 0xdc,
    0xe9, 0xe1, 0x09, 0xf8, 0x39, 0x07, 0x0a, 0x3d, 0xda, 0x14, 0xc3, 0xc2, 0xb1,
    0xbe, 0x3e, 0x1f, 0xc5, 0xe5, 0xfc, 0x18, 0xbd, 0xc4, 0x2f, 0x26, 0x11, 0xdd,
    0x50, 0x0d, 0xce, 0x29, 0xf1, 0xc3, 0x36, 0xe2, 0xf5, 0x19, 0x14, 0xca, 0xb5,
    0x16, 0x10, 0xc1, 0x22, 0xcd, 0xcc, 0x25, 0x26, 0x24, 0xca, 0x15, 0x10, 0x0a,
    0xd9, 0x15, 0xd2, 0x3e, 0x01, 0xcb, 0xd5, 0x1e, 0x39, 0xf3, 0x21, 0x0a, 0xed,
    0x19, 0xe4, 0xd1, 0xe1, 0xf0, 0xd6, 0x34, 0xd7, 0xe9, 0x2e, 0x31, 0x09, 0x03,
    0xd8, 0xd8, 0x2b, 0x24, 0xed, 0x31, 0x26, 0xca, 0x02, 0x21, 0x2a, 0xfc, 0x20,
    0xe7, 0xed, 0x20, 0x16, 0xb2, 0x45, 0xc7, 0xfc, 0xe7, 0x28, 0x4c, 0xf7, 0xf6,
    0x23, 0x12, 0xbb, 0x02, 0xe5, 0xed, 0xec, 0xd6, 0xc2, 0xd0, 0x03, 0xd8, 0xeb,
    0x4b, 0xfb, 0x47, 0xf4, 0x1f, 0xdb, 0xfa, 0x31, 0xd8, 0x17, 0xea, 0x0f, 0xd0,
    0xe5, 0xc6, 0x26, 0x19, 0x0a, 0x16, 0x04, 0xe6, 0x19, 0xe7, 0xfd, 0xe8, 0x06,
    0xe5, 0x35, 0xcb, 0xdd, 0xbf, 0xe7, 0x42, 0xd8, 0xcb, 0x11, 0xce, 0xb7, 0xf9,
    0xd9, 0xf2, 0xee, 0xf9, 0x10, 0x2d, 0x0e, 0x0c, 0xba, 0xe9, 0xcf, 0x38, 0xf0,
    0x1f, 0x09, 0x3d, 0x34, 0xc5, 0xd6, 0x14, 0x00, 0x00, 0xd4, 0xe8, 0x33, 0x31,
    0x19, 0xdb, 0x41, 0xeb, 0x4a, 0xec, 0xb8, 0x28, 0xf5, 0xf9, 0x4e, 0xf8, 0xf9,
    0x2c, 0x0e, 0xd3, 0xd8, 0x1f, 0xd5, 0x13, 0x2f, 0x26, 0xf2, 0xd1, 0x23, 0x2f,
    0x0a, 0x06, 0x18, 0xe0, 0xfc, 0xb8, 0x44, 0xf2, 0x3f, 0xe1, 0xc9, 0x01, 0x01,
    0xf5, 0xfc, 0x24, 0x22, 0xe2, 0xcc, 0x30, 0x26, 0x20, 0xda, 0x17, 0x1f, 0x29,
    0xec, 0xfe, 0x3d, 0xef, 0x41, 0xdf, 0x07, 0xd3, 0xf0, 0x0f, 0x00, 0xfb, 0xff,
    0x04, 0xc2, 0xeb, 0x1e, 0xd2, 0x33, 0xe6, 0xe0, 0xc4, 0x09, 0xf3, 0xb2, 0x10,
    0xfb, 0x08, 0x15, 0x19, 0x29, 0x01, 0x0d, 0x09, 0xda, 0x37, 0xe1, 0x37, 0xe5,
    0x00, 0x1f, 0xfc, 0xe4, 0xe7, 0xe2, 0xd2, 0x18, 0xd6, 0x38, 0x01, 0xf1, 0x39,
    0x39, 0xea, 0x46, 0xd1, 0xe1, 0x2d, 0xfa, 0xe9, 0x20, 0xda, 0xf6, 0xf1, 0xf2,
    0x1e, 0xdd, 0xff, 0x14, 0xf2, 0x33, 0x28, 0xf8, 0x0b, 0xf8, 0x20, 0x16, 0xf5,
    0xda, 0xce, 0x14, 0x15, 0xbd, 0xfd, 0xd2, 0x36, 0x25, 0xe3, 0x36, 0x30, 0x29,
    0x46, 0xf4, 0xf6, 0xdc, 0xd0, 0x29, 0x03, 0xdb, 0xf8, 0x41, 0x06, 0xf1, 0x2a,
    0x25, 0xe9, 0xc7, 0x20, 0xf3, 0xed, 0xd9, 0xfe, 0xe4, 0x10, 0x04, 0xd8, 0xd2,
    0xcd, 0x1d, 0xc5, 0xcc, 0xf5, 0x35, 0x24, 0x34, 0x17, 0x1e, 0xe0, 0x10, 0xcf,
    0x1f, 0xdc, 0xdd, 0x3f, 0xc9, 0x2a, 0xe3, 0xdb, 0xe9, 0x3c, 0xc1, 0xf7, 0xbe,
    0x29, 0xf3, 0x39, 0xf5, 0x09, 0x27, 0x49, 0x23, 0xf9, 0xe4, 0x0a, 0xf3, 0x1f,
    0xd6, 0x1d, 0x1f, 0xe6, 0xfd, 0x21, 0xc2, 0x26, 0x1c, 0x0e, 0x2d, 0x1c, 0xee,
    0x34, 0xdd, 0x23, 0xea, 0xe2, 0xe1, 0xf0, 0x1d, 0x0b, 0x1e, 0x14, 0x1d, 0x32,
    0x2a, 0x25, 0xee, 0x28, 0xfc, 0x2e, 0xdf, 0x3c, 0x0d, 0x19, 0xc0, 0xf6, 0xc9,
    0x24, 0xea, 0xff, 0x30, 0xdb, 0xe9, 0x25, 0x14, 0xd7, 0x07, 0xd9, 0x3f, 0x34,
    0x4e, 0x06, 0x2c, 0xe0, 0x0a, 0xe6, 0x0c, 0x1d, 0xd7, 0x31, 0xeb, 0xe5, 0x20,
    0xce, 0xba, 0xdf, 0xf3, 0x29, 0xe3, 0x15, 0x52, 0x19, 0xc7, 0xf2, 0x2b, 0x30,
    0xd3, 0xb9, 0xe4, 0xd2, 0x23, 0x0f, 0x11, 0x06, 0x05, 0x2e, 0xca, 0xf5, 0xd3,
    0xcd, 0xc7, 0x3a, 0xe2, 0xd1, 0x03, 0x26, 0xcf, 0x03, 0xdb, 0xe9, 0x2e, 0xd8,
    0x2a, 0x2a, 0x3d, 0xe5, 0x3c, 0x44, 0x02, 0xe6, 0x37, 0xd1, 0xda, 0x38, 0x1d,
    0x13, 0x01, 0x2e, 0xf5, 0x43, 0xf9, 0x0d, 0xdc, 0x3b, 0x13, 0xe0, 0x26, 0xd1,
    0x19, 0x26, 0xd3, 0x0d, 0x17, 0x0e, 0xb6, 0xce, 0xc5, 0xf9, 0x21, 0xc2, 0xe7,
    0xf6, 0x3e, 0x0d, 0x13, 0xf1, 0xd8, 0xfc, 0x01, 0x27, 0xdf, 0xe5, 0x33, 0x0c,
    0xe0, 0xef, 0x3f, 0x27, 0x13, 0xe2, 0x2f, 0xcf, 0x3e, 0xdf, 0xd1, 0xf6, 0xeb,
    0xef, 0x07, 0xe7, 0x3a, 0x29, 0xf2, 0x20, 0xdf, 0x08, 0xa5, 0x07, 0x2f, 0xdd,
    0x32, 0x05, 0xf2, 0xb9, 0xed, 0x03, 0x2e, 0xf8, 0x23, 0x1b, 0xfa, 0xd8, 0x08,
    0xfd, 0x07, 0x2e, 0xdf, 0x0d, 0xee, 0x2e, 0x31, 0xac, 0x0a, 0xfe, 0x02, 0xe2,
    0x12, 0x34, 0xcd, 0xd8, 0xd5, 0x35, 0xdc, 0x2f, 0xf9, 0x1c, 0x06, 0x2d, 0x33,
    0xfc, 0x20, 0x10, 0xea, 0x02, 0xdb, 0x43, 0xfb, 0xcc, 0xe2, 0x42, 0x01, 0x2b,
    0x2b, 0xfb, 0x05, 0xf6, 0x03, 0xe0, 0x29, 0x2e, 0x2b, 0xdf, 0xf9, 0xfd, 0xee,
    0x35, 0xde, 0xdf, 0x0a, 0xff, 0xfc, 0xf5, 0x1b, 0x11, 0xe5, 0xe0, 0x22, 0xfb,
    0xbd, 0x37, 0xbe, 0xd8, 0xec, 0x2a, 0x2a, 0xff, 0x32, 0xe2, 0x1f, 0xdd, 0x12,
    0xd3, 0xc0, 0xf1, 0x29, 0xbf, 0x23, 0x11, 0x38, 0x49, 0x31, 0x3f, 0x1e, 0x2e,
    0xe3, 0x11, 0xe4, 0xe3, 0xcc, 0x3b, 0xd4, 0x3e, 0xe5, 0xd4, 0x32, 0x26, 0xff,
    0x2b, 0x45, 0x30, 0xc5, 0xd0, 0x0f, 0x1d, 0x44, 0x39, 0xc9, 0xdd, 0x2a, 0xd1,
    0xbd, 0x2d, 0x05, 0xf1, 0xb0, 0xbc, 0x49, 0x03, 0x29, 0x83, 0xf2, 0xe2, 0x03,
    0x37, 0xd4, 0xd3, 0x15, 0xdb, 0x00, 0xdd, 0x49, 0xd3, 0xd2, 0xff, 0x03, 0x16,
    0x1d, 0x13, 0xd2, 0x19, 0x01, 0xc7, 0xcf, 0xed, 0xf0, 0xca, 0xe3, 0xdd, 0xd5,
    0x0a, 0x22, 0x81, 0xe3, 0x13, 0x3e, 0x3c, 0x21, 0xf3, 0x2f, 0xfd, 0xe7, 0x31,
    0x4b, 0xd1, 0xf4, 0x58, 0x07, 0xc4, 0xca, 0xe4, 0x30, 0xc8, 0x16, 0x27, 0xe6,
    0x3d, 0xed, 0xfd, 0x37, 0xf1, 0xc7, 0x36, 0xde, 0x22, 0x12, 0xf9, 0x2b, 0xdb,
    0xe7, 0x13, 0x35, 0xfb, 0x10, 0x01, 0x39, 0xf9, 0x32, 0xe6, 0x2f, 0xfa, 0x1b,
    0xfc, 0xe0, 0xe6, 0x44, 0x0f, 0xdf, 0xc6, 0x16, 0xf7, 0x38, 0xe6, 0xd1, 0xc7,
    0x35, 0x25, 0xdc, 0x16, 0xed, 0x11, 0xd4, 0xc7, 0x13, 0xfb, 0x39, 0xc7, 0x06,
    0x29, 0x2c, 0xeb, 0x12, 0xc8, 0xdc, 0xcf, 0xf0, 0xe7, 0xd5, 0x1f, 0xcd, 0xf9,
    0xc7, 0xf6, 0xec, 0x0d, 0xf4, 0x15, 0xf3, 0x05, 0x03, 0xc6, 0xdd, 0xe6, 0x24,
    0xe4, 0x01, 0x2e, 0x1e, 0x05, 0xfd, 0xeb, 0xf6, 0xcb, 0xfe, 0xd3, 0xfd, 0xd1,
    0xf6, 0xf4, 0xff, 0xff, 0x00, 0x00, 0x00, 0x09, 0x10, 0x00, 0x00, 0x00, 0x0a,
    0x00, 0x00, 0x00, 0x14, 0x00, 0x00, 0x00, 0x80, 0x00, 0x00, 0x00, 0x02, 0x00,
    0x00, 0x00, 0x20, 0x00, 0x00, 0x00, 0x20, 0x00, 0x00, 0x00, 0x69, 0x00, 0x00,
    0x00, 0x73, 0x65, 0x71, 0x75, 0x65, 0x6e, 0x74, 0x69, 0x61, 0x6c, 0x5f, 0x33,
    0x37, 0x2f, 0x71, 0x75, 0x61, 0x6e, 0x74, 0x5f, 0x64, 0x65, 0x6e, 0x73, 0x65,
    0x5f, 0x31, 0x31, 0x32, 0x2f, 0x4d, 0x61, 0x74, 0x4d, 0x75, 0x6c, 0x3b, 0x73,
    0x65, 0x71, 0x75, 0x65, 0x6e, 0x74, 0x69, 0x61, 0x6c, 0x5f, 0x33, 0x37, 0x2f,
    0x71, 0x75, 0x61, 0x6e, 0x74, 0x5f, 0x64, 0x65, 0x6e, 0x73, 0x65, 0x5f, 0x31,
    0x31, 0x32, 0x2f, 0x4c, 0x61, 0x73, 0x74, 0x56, 0x61, 0x6c, 0x75, 0x65, 0x51,
    0x75, 0x61, 0x6e, 0x74, 0x2f, 0x46, 0x61, 0x6b, 0x65, 0x51, 0x75, 0x61, 0x6e,
    0x74, 0x57, 0x69, 0x74, 0x68, 0x4d, 0x69, 0x6e, 0x4d, 0x61, 0x78, 0x56, 0x61,
    0x72, 0x73, 0x00, 0x00, 0x00, 0xd4, 0xf5, 0xff, 0xff, 0x08, 0x00, 0x00, 0x00,
    0x0c, 0x00, 0x00, 0x00, 0x01, 0x00, 0x00, 0x00, 0x12, 0xd3, 0x9b, 0x3b, 0x01,
    0x00, 0x00, 0x00, 0x00, 0x00, 0x00, 0x00, 0x00, 0x00, 0x00, 0x00, 0x00, 0x00,
    0x0e, 0x00, 0x1a, 0x00, 0x08, 0x00, 0x0c, 0x00, 0x10, 0x00, 0x07, 0x00, 0x14,
    0x00, 0x0e, 0x00, 0x00, 0x00, 0x00, 0x00, 0x00, 0x08, 0x02, 0x00, 0x00, 0x00,
    0x24, 0x00, 0x00, 0x00, 0x18, 0x00, 0x00, 0x00, 0x0c, 0x00, 0x00, 0x00, 0x00,
    0x00, 0x06, 0x00, 0x08, 0x00, 0x07, 0x00, 0x06, 0x00, 0x00, 0x00, 0x00, 0x00,
    0x00, 0x01, 0x01, 0x00, 0x00, 0x00, 0x08, 0x00, 0x00, 0x00, 0x03, 0x00, 0x00,
    0x00, 0x06, 0x00, 0x00, 0x00, 0x07, 0x00, 0x00, 0x00, 0x03, 0x00, 0x00, 0x00,
    0x9c, 0xf6, 0xff, 0xff, 0x09, 0x00, 0x00, 0x00, 0x00, 0x00, 0x00, 0x09, 0x04,
    0x00, 0x00, 0x00, 0x0a, 0xf6, 0xff, 0xff, 0x00, 0x00, 0x00, 0x09, 0x10, 0x00,
    0x00, 0x00, 0x09, 0x00, 0x00, 0x00, 0x14, 0x00, 0x00, 0x00, 0x84, 0x00, 0x00,
    0x00, 0x02, 0x00, 0x00, 0x00, 0x01, 0x00, 0x00, 0x00, 0x20, 0x00, 0x00, 0x00,
    0x6d, 0x00, 0x00, 0x00, 0x73, 0x65, 0x71, 0x75, 0x65, 0x6e, 0x74, 0x69, 0x61,
    0x6c, 0x5f, 0x33, 0x37, 0x2f, 0x71, 0x75, 0x61, 0x6e, 0x74, 0x5f, 0x64, 0x65,
    0x6e, 0x73, 0x65, 0x5f, 0x31, 0x31, 0x31, 0x2f, 0x4d, 0x61, 0x74, 0x4d, 0x75,
    0x6c, 0x3b, 0x73, 0x65, 0x71, 0x75, 0x65, 0x6e, 0x74, 0x69, 0x61, 0x6c, 0x5f,
    0x33, 0x37, 0x2f, 0x71, 0x75, 0x61, 0x6e, 0x74, 0x5f, 0x64, 0x65, 0x6e, 0x73,
    0x65, 0x5f, 0x31, 0x31, 0x31, 0x2f, 0x42, 0x69, 0x61, 0x73, 0x41, 0x64, 0x64,
    0x3b, 0x73, 0x65, 0x71, 0x75, 0x65, 0x6e, 0x74, 0x69, 0x61, 0x6c, 0x5f, 0x33,
    0x37, 0x2f, 0x71, 0x75, 0x61, 0x6e, 0x74, 0x5f, 0x64, 0x65, 0x6e, 0x73, 0x65,
    0x5f, 0x31, 0x31, 0x31, 0x2f, 0x52, 0x65, 0x6c, 0x75, 0x00, 0x00, 0x00, 0xec,
    0xf6, 0xff, 0xff, 0x08, 0x00, 0x00, 0x00, 0x0c, 0x00, 0x00, 0x00, 0x01, 0x00,
    0x00, 0x00, 0xa2, 0x45, 0xb9, 0x3b, 0x01, 0x00, 0x00, 0x00, 0xa6, 0xff, 0xff,
    0xff, 0xff, 0xff, 0xff, 0xff, 0xde, 0xf6, 0xff, 0xff, 0x04, 0x00, 0x00, 0x00,
    0x00, 0x04, 0x00, 0x00, 0x46, 0x47, 0xb6, 0x44, 0x3c, 0x5f, 0x39, 0x1b, 0xdb,
    0xe5, 0xfa, 0x19, 0x00, 0xcb, 0x9e, 0xf1, 0xbb, 0x2f, 0xa6, 0x9a, 0x59, 0xaf,
    0xd3, 0x32, 0x0e, 0xa4, 0x65, 0x45, 0x6c, 0x00, 0x6c, 0xa9, 0x09, 0x03, 0xbe,
    0xbe, 0xd5, 0x26, 0x2f, 0xd6, 0xcc, 0x14, 0xb7, 0x3b, 0x32, 0x16, 0x15, 0x3d,
    0x01, 0x0b, 0xcf, 0x1d, 0xf3, 0xe1, 0xf0, 0x0c, 0x09, 0xe0, 0x57, 0x2c, 0x35,
    0x3d, 0xcd, 0x03, 0x26, 0x06, 0xcf, 0xc8, 0x08, 0xe6, 0xf3, 0x3b, 0x19, 0x16,
    0x2a, 0x22, 0x11, 0x27, 0x0c, 0xe1, 0xd7, 0xe9, 0x22, 0xc6, 0x14, 0xd0, 0xcb,
    0xad, 0x6b, 0x18, 0xbc, 0xc0, 0xdd, 0x2e, 0x45, 0xac, 0xd9, 0x21, 0x95, 0x47,
    0xde, 0x03, 0x4a, 0x14, 0xe2, 0xad, 0xeb, 0xe8, 0x2d, 0x34, 0xc7, 0xb0, 0xe0,
    0x26, 0x20, 0xdb, 0x70, 0x1b, 0x20, 0x41, 0x72, 0x50, 0x4d, 0x58, 0x69, 0x65,
    0x7c, 0xfd, 0xa3, 0xae, 0x21, 0x1b, 0x1a, 0x3c, 0x47, 0xa8, 0xa8, 0xcb, 0xee,
    0xaf, 0xaa, 0x3f, 0x5c, 0xcc, 0x37, 0xfd, 0x60, 0x05, 0xe8, 0x52, 0xd6, 0xb6,
    0xf3, 0x27, 0x06, 0x11, 0x33, 0xd1, 0xfa, 0x31, 0x5a, 0x38, 0x73, 0xb7, 0x21,
    0xab, 0xd9, 0x45, 0x68, 0xe8, 0xc5, 0xe5, 0x66, 0x40, 0xe5, 0x54, 0xbc, 0x2a,
    0xb1, 0xf3, 0xde, 0x05, 0xc4, 0x0c, 0x01, 0x21, 0x29, 0x10, 0x07, 0x6e, 0x45,
    0x3c, 0xde, 0xdb, 0xba, 0x19, 0x1a, 0x64, 0xb4, 0xdd, 0x03, 0x1c, 0x60, 0xb5,
    0x2f, 0x4e, 0x25, 0xc5, 0x24, 0xce, 0x05, 0x46, 0x39, 0xab, 0xd3, 0x55, 0xc1,
    0x4a, 0x1d, 0x42, 0x60, 0xef, 0x06, 0xd0, 0xb7, 0xe6, 0xd6, 0x42, 0xb3, 0xfb,
    0xda, 0x51, 0x39, 0x4e, 0xff, 0x41, 0x35, 0x4d, 0xdf, 0x1e, 0x00, 0x00, 0x9e,
    0xdd, 0x1d, 0xce, 0xe6, 0xe9, 0x25, 0xb7, 0xe7, 0x3c, 0xdb, 0xc3, 0xb5, 0xac,
    0xf1, 0x55, 0xae, 0x61, 0x0c, 0x31, 0xe1, 0x42, 0x31, 0x5b, 0x2d, 0xc3, 0xa6,
    0x44, 0x5a, 0xe3, 0x0b, 0xcb, 0x04, 0xc3, 0x3c, 0x2e, 0x00, 0xd8, 0x2c, 0xaf,
    0x3b, 0x14, 0xb7, 0x28, 0xe0, 0x1f, 0x19, 0x34, 0x11, 0xfb, 0xf9, 0xd6, 0xad,
    0x26, 0xf1, 0x54, 0xdd, 0x05, 0xfd, 0xcf, 0x93, 0xab, 0xb5, 0x4e, 0x04, 0xce,
    0x38, 0xb8, 0xc2, 0xdf, 0xd2, 0x3b, 0x5e, 0xcf, 0xf5, 0x9d, 0x5e, 0xd3, 0x2d,
    0x2f, 0xc2, 0xae, 0x4c, 0xdd, 0xf6, 0xe6, 0xe9, 0x05, 0xb8, 0xcb, 0xe7, 0x06,
    0xcc, 0x4f, 0x3d, 0xfe, 0x10, 0xf0, 0xb2, 0xdb, 0x09, 0x23, 0xdf, 0xfc, 0xef,
    0x35, 0xba, 0xa7, 0xbc, 0x04, 0xdc, 0xe2, 0x4a, 0x13, 0x11, 0xf4, 0x67, 0xe5,
    0xe9, 0x10, 0x4c, 0xec, 0xd1, 0x20, 0xc1, 0x0d, 0xef, 0xf4, 0xea, 0xcd, 0x32,
    0xd8, 0x10, 0x09, 0xe9, 0xc9, 0x97, 0x42, 0xc8, 0xc0, 0xcd, 0x03, 0x47, 0xfa,
    0x27, 0x4e, 0x0e, 0x09, 0x54, 0x21, 0xc0, 0xff, 0x45, 0xdf, 0x50, 0xe8, 0x37,
    0xe3, 0x06, 0xd1, 0xeb, 0xd4, 0x0b, 0xbf, 0x06, 0xa3, 0xaa, 0xee, 0x03, 0xf8,
    0x3e, 0xeb, 0x2d, 0xb2, 0x0b, 0x58, 0xd2, 0x3c, 0x43, 0x3d, 0xba, 0xba, 0x1e,
    0x07, 0xd9, 0x05, 0x1d, 0xe1, 0x06, 0x2d, 0xf3, 0x0a, 0x0c, 0x54, 0x01, 0xba,
    0x10, 0x51, 0xd0, 0xd4, 0x70, 0xfc, 0xeb, 0x53, 0xf8, 0x20, 0x0b, 0x98, 0x1c,
    0x04, 0x10, 0xf3, 0xd4, 0xc5, 0xf2, 0x04, 0x64, 0xca, 0xee, 0xd3, 0xfe, 0x5c,
    0x13, 0xad, 0xf3, 0x29, 0x49, 0x3a, 0xb3, 0xe7, 0x9b, 0x2b, 0x91, 0xc7, 0xba,
    0xe9, 0x8d, 0xb0, 0x1e, 0xe6, 0xcb, 0xf2, 0xb2, 0x3a, 0xea, 0xcb, 0xd3, 0xbe,
    0x27, 0xb6, 0xbf, 0x57, 0xf3, 0x54, 0x38, 0x17, 0xda, 0x40, 0xcc, 0x19, 0x35,
    0xd3, 0x39, 0xb1, 0x01, 0x0e, 0xe2, 0x1d, 0xe9, 0xb9, 0x1e, 0x0c, 0x11, 0x0c,
    0xe3, 0xfc, 0xf3, 0x07, 0xde, 0xc2, 0x25, 0x31, 0xcf, 0xfe, 0x0a, 0xd3, 0xd5,
    0x33, 0xb1, 0x4f, 0xe1, 0x1b, 0xa2, 0xdf, 0xd6, 0xc3, 0x4b, 0x05, 0xc5, 0xa0,
    0x25, 0x4c, 0xa9, 0xc9, 0x20, 0xf8, 0x09, 0xd6, 0x2f, 0x0b, 0xdc, 0x53, 0x13,
    0xa7, 0x3a, 0x05, 0xd5, 0xb5, 0xe2, 0xf8, 0xb9, 0x00, 0x0c, 0xe7, 0x42, 0x37,
    0x5d, 0xc7, 0x34, 0xec, 0x29, 0x11, 0x05, 0x06, 0xb1, 0xf6, 0x07, 0x3a, 0xd7,
    0xb6, 0x46, 0x5f, 0xa5, 0xae, 0xae, 0xff, 0x09, 0x09, 0xf0, 0xd4, 0xa1, 0xad,
    0xe8, 0xcf, 0xd9, 0xef, 0x33, 0x5d, 0xfe, 0xc4, 0x1c, 0xb1, 0x40, 0x02, 0xaf,
    0x5a, 0xab, 0xaa, 0x27, 0xf8, 0x01, 0x2d, 0x4e, 0x31, 0xb3, 0x14, 0xb1, 0xeb,
    0xcd, 0xc0, 0xc2, 0x18, 0x3a, 0x11, 0x1d, 0xaa, 0xc7, 0xca, 0x11, 0x21, 0xdd,
    0x16, 0xd7, 0x2e, 0xb7, 0x30, 0xfe, 0x07, 0xef, 0xf3, 0x2a, 0x65, 0x12, 0x25,
    0xe0, 0x0f, 0xcf, 0x5f, 0x09, 0x49, 0xfe, 0xe1, 0xa2, 0x2d, 0x57, 0xa8, 0xb6,
    0x4c, 0x06, 0xb0, 0xb4, 0xa9, 0xef, 0x30, 0x56, 0xe9, 0xb5, 0xee, 0x20, 0xcb,
    0xeb, 0x0f, 0x3c, 0x0c, 0x5f, 0xff, 0xf6, 0x15, 0xed, 0x35, 0xe2, 0xbe, 0xbf,
    0x4d, 0xdc, 0xf5, 0xf6, 0xb8, 0xd4, 0x3c, 0xeb, 0x29, 0x45, 0xbc, 0xc3, 0x5d,
    0xb9, 0xe1, 0x48, 0x42, 0xb8, 0xac, 0xb0, 0xb8, 0x3e, 0xf7, 0xf4, 0xee, 0xdd,
    0x0c, 0x19, 0xc9, 0xc9, 0xb7, 0xad, 0xd6, 0x5c, 0x36, 0xe4, 0xd3, 0xdc, 0xf0,
    0xb9, 0x12, 0xc8, 0x3e, 0x47, 0x0d, 0x3a, 0x0b, 0xe0, 0xf3, 0x14, 0x1e, 0x32,
    0x68, 0x4e, 0x60, 0x1d, 0x3b, 0x14, 0xd3, 0x12, 0xea, 0xc6, 0xe1, 0x9f, 0xd5,
    0x50, 0x49, 0x1a, 0xe3, 0x10, 0x3a, 0xcc, 0xd1, 0x0e, 0x58, 0x3b, 0xf1, 0xb1,
    0x49, 0x03, 0xe4, 0x0a, 0x59, 0x20, 0x59, 0xf0, 0x01, 0xf5, 0xf1, 0x1e, 0x36,
    0x50, 0xef, 0xba, 0xbb, 0x45, 0x59, 0xe7, 0xf9, 0xe8, 0x0a, 0x41, 0x5a, 0xcd,
    0xf6, 0xd9, 0xfa, 0x3e, 0x03, 0xf9, 0xf5, 0xae, 0x18, 0x32, 0x95, 0xd8, 0x52,
    0x02, 0xb8, 0x09, 0x9f, 0x33, 0x38, 0xa8, 0xc2, 0xa7, 0x0d, 0xeb, 0xab, 0xa3,
    0xf1, 0xd0, 0xfb, 0x4b, 0xf6, 0xea, 0xe8, 0xbe, 0x9b, 0x4b, 0x2b, 0x2a, 0xdc,
    0xc4, 0x49, 0x61, 0xea, 0xd4, 0xda, 0xab, 0xf7, 0xf2, 0xd7, 0x17, 0xba, 0xc1,
    0xe9, 0xb7, 0xd1, 0x33, 0xaa, 0x03, 0x4d, 0xe4, 0xe4, 0xef, 0x4d, 0x26, 0xfa,
    0x42, 0x22, 0xb8, 0xf8, 0xb5, 0x02, 0x2e, 0xcd, 0x02, 0x33, 0x44, 0xdb, 0x64,
    0xc8, 0xf8, 0xcc, 0xcc, 0x5c, 0x4c, 0x4d, 0x27, 0x60, 0x66, 0xaf, 0x5e, 0xc9,
    0xf3, 0xb2, 0x12, 0xc6, 0x51, 0x39, 0x09, 0x54, 0x46, 0x17, 0x21, 0x34, 0x37,
    0x1a, 0xab, 0xbc, 0x1c, 0xe9, 0xe5, 0xb8, 0xb0, 0x19, 0xe2, 0x3c, 0xef, 0xcc,
    0x5a, 0x3a, 0x38, 0x10, 0x1d, 0x4a, 0x17, 0xaf, 0xc2, 0x45, 0x2d, 0xc9, 0xf2,
    0x3c, 0x30, 0xe7, 0x18, 0x28, 0xd7, 0xf2, 0xdb, 0x5f, 0x81, 0x22, 0x17, 0x56,
    0x86, 0xef, 0x9c, 0xaf, 0xa4, 0xda, 0xbc, 0xd4, 0x21, 0x5f, 0xf9, 0xbf, 0x35,
    0x34, 0x28, 0xff, 0x30, 0x46, 0xfb, 0x0f, 0x5a, 0xde, 0xff, 0x4a, 0x32, 0x0a,
    0xe6, 0x6c, 0xbf, 0xf3, 0x3a, 0x92, 0xf3, 0x1c, 0x23, 0x21, 0xc1, 0xa8, 0xe3,
    0x05, 0x11, 0xaa, 0x4f, 0xbc, 0xcf, 0xd7, 0x60, 0xf7, 0x04, 0x3e, 0x15, 0xa6,
    0x33, 0xd5, 0x41, 0x05, 0x16, 0x5c, 0x34, 0x48, 0x04, 0xd6, 0x69, 0x61, 0x7f,
    0x61, 0x54, 0x48, 0x5d, 0x2f, 0x57, 0x5e, 0x36, 0xec, 0x2f, 0x1e, 0x21, 0x52,
    0xb3, 0x1c, 0x1e, 0x49, 0x00, 0x9d, 0xc9, 0x2b, 0x2f, 0xed, 0x1e, 0x95, 0x20,
    0x8e, 0xce, 0xfa, 0xff, 0xff, 0x00, 0x00, 0x00, 0x09, 0x10, 0x00, 0x00, 0x00,
    0x08, 0x00, 0x00, 0x00, 0x14, 0x00, 0x00, 0x00, 0x80, 0x00, 0x00, 0x00, 0x02,
    0x00, 0x00, 0x00, 0x20, 0x00, 0x00, 0x00, 0x20, 0x00, 0x00, 0x00, 0x69, 0x00,
    0x00, 0x00, 0x73, 0x65, 0x71, 0x75, 0x65, 0x6e, 0x74, 0x69, 0x61, 0x6c, 0x5f,
    0x33, 0x37, 0x2f, 0x71, 0x75, 0x61, 0x6e, 0x74, 0x5f, 0x64, 0x65, 0x6e, 0x73,
    0x65, 0x5f, 0x31, 0x31, 0x31, 0x2f, 0x4d, 0x61, 0x74, 0x4d, 0x75, 0x6c, 0x3b,
    0x73, 0x65, 0x71, 0x75, 0x65, 0x6e, 0x74, 0x69, 0x61, 0x6c, 0x5f, 0x33, 0x37,
    0x2f, 0x71, 0x75, 0x61, 0x6e, 0x74, 0x5f, 0x64, 0x65, 0x6e, 0x73, 0x65, 0x5f,
    0x31, 0x31, 0x31, 0x2f, 0x4c, 0x61, 0x73, 0x74, 0x56, 0x61, 0x6c, 0x75, 0x65,
    0x51, 0x75, 0x61, 0x6e, 0x74, 0x2f, 0x46, 0x61, 0x6b, 0x65, 0x51, 0x75, 0x61,
    0x6e, 0x74, 0x57, 0x69, 0x74, 0x68, 0x4d, 0x69, 0x6e, 0x4d, 0x61, 0x78, 0x56,
    0x61, 0x72, 0x73, 0x00, 0x00, 0x00, 0xac, 0xfb, 0xff, 0xff, 0x08, 0x00, 0x00,
    0x00, 0x0c, 0x00, 0x00, 0x00, 0x01, 0x00, 0x00, 0x00, 0x4d, 0x40, 0x59, 0x3b,
    0x01, 0x00, 0x00, 0x00, 0x00, 0x00, 0x00, 0x00, 0x00, 0x00, 0x00, 0x00, 0x00,
    0x00, 0x0a, 0x00, 0x10, 0x00, 0x04, 0x00, 0x08, 0x00, 0x0c, 0x00, 0x0a, 0x00,
    0x00, 0x00, 0x01, 0x00, 0x00, 0x00, 0x10, 0x00, 0x00, 0x00, 0x04, 0x00, 0x00,
    0x00, 0x01, 0x00, 0x00, 0x00, 0x06, 0x00, 0x00, 0x00, 0x02, 0x00, 0x00, 0x00,
    0x02, 0x00, 0x00, 0x00, 0x01, 0x00, 0x00, 0x00, 0x54, 0xfc, 0xff, 0xff, 0x16,
    0x00, 0x00, 0x00, 0x00, 0x00, 0x00, 0x16, 0x01, 0x00, 0x00, 0x00, 0xc2, 0xfb,
    0xff, 0xff, 0x00, 0x00, 0x00, 0x09, 0x10, 0x00, 0x00, 0x00, 0x07, 0x00, 0x00,
    0x00, 0x14, 0x00, 0x00, 0x00, 0x84, 0x00, 0x00, 0x00, 0x02, 0x00, 0x00, 0x00,
    0x01, 0x00, 0x00, 0x00, 0x20, 0x00, 0x00, 0x00, 0x6f, 0x00, 0x00, 0x00, 0x73,
    0x65, 0x71, 0x75, 0x65, 0x6e, 0x74, 0x69, 0x61, 0x6c, 0x5f, 0x33, 0x37, 0x2f,
    0x71, 0x75, 0x61, 0x6e, 0x74, 0x5f, 0x66, 0x6c, 0x61, 0x74, 0x74, 0x65, 0x6e,
    0x5f, 0x33, 0x37, 0x2f, 0x52, 0x65, 0x73, 0x68, 0x61, 0x70, 0x65, 0x3b, 0x73,
    0x65, 0x71, 0x75, 0x65, 0x6e, 0x74, 0x69, 0x61, 0x6c, 0x5f, 0x33, 0x37, 0x2f,
    0x71, 0x75, 0x61, 0x6e, 0x74, 0x69, 0x7a, 0x65, 0x5f, 0x6c, 0x61, 0x79, 0x65,
    0x72, 0x5f, 0x31, 0x2f, 0x41, 0x6c, 0x6c, 0x56, 0x61, 0x6c, 0x75, 0x65, 0x73,
    0x51, 0x75, 0x61, 0x6e, 0x74, 0x69, 0x7a, 0x65, 0x2f, 0x46, 0x61, 0x6b, 0x65,
    0x51, 0x75, 0x61, 0x6e, 0x74, 0x57, 0x69, 0x74, 0x68, 0x4d, 0x69, 0x6e, 0x4d,
    0x61, 0x78, 0x56, 0x61, 0x72, 0x73, 0x00, 0xa4, 0xfc, 0xff, 0xff, 0x08, 0x00,
    0x00, 0x00, 0x0c, 0x00, 0x00, 0x00, 0x01, 0x00, 0x00, 0x00, 0xaa, 0x83, 0x92,
    0x3b, 0x01, 0x00, 0x00, 0x00, 0x0f, 0x00, 0x00, 0x00, 0x00, 0x00, 0x00, 0x00,
    0x00, 0x00, 0x00, 0x00, 0x9a, 0xfc, 0xff, 0xff, 0x04, 0x00, 0x00, 0x00, 0x04,
    0x00, 0x00, 0x00, 0x95, 0xfe, 0xff, 0xff, 0x8e, 0xfc, 0xff, 0xff, 0x00, 0x00,
    0x00, 0x02, 0x10, 0x00, 0x00, 0x00, 0x06, 0x00, 0x00, 0x00, 0x10, 0x00, 0x00,
    0x00, 0x50, 0x00, 0x00, 0x00, 0x01, 0x00, 0x00, 0x00, 0x01, 0x00, 0x00, 0x00,
    0x3d, 0x00, 0x00, 0x00, 0x73, 0x65, 0x71, 0x75, 0x65, 0x6e, 0x74, 0x69, 0x61,
    0x6c, 0x5f, 0x33, 0x37, 0x2f, 0x71, 0x75, 0x61, 0x6e, 0x74, 0x5f, 0x64, 0x65,
    0x6e, 0x73, 0x65, 0x5f, 0x31, 0x31, 0x33, 0x2f, 0x42, 0x69, 0x61, 0x73, 0x41,
    0x64, 0x64, 0x2f, 0x52, 0x65, 0x61, 0x64, 0x56, 0x61, 0x72, 0x69, 0x61, 0x62,
    0x6c, 0x65, 0x4f, 0x70, 0x2f, 0x72, 0x65, 0x73, 0x6f, 0x75, 0x72, 0x63, 0x65,
    0x00, 0x00, 0x00, 0x3c, 0xfd, 0xff, 0xff, 0x08, 0x00, 0x00, 0x00, 0x0c, 0x00,
    0x00, 0x00, 0x01, 0x00, 0x00, 0x00, 0x28, 0xe6, 0xa0, 0x37, 0x01, 0x00, 0x00,
    0x00, 0x00, 0x00, 0x00, 0x00, 0x00, 0x00, 0x00, 0x00, 0x2e, 0xfd, 0xff, 0xff,
    0x04, 0x00, 0x00, 0x00, 0x80, 0x00, 0x00, 0x00, 0x8f, 0x01, 0x00, 0x00, 0x3b,
    0xfe, 0xff, 0xff, 0x13, 0x09, 0x00, 0x00, 0x33, 0x04, 0x00, 0x00, 0x48, 0xfb,
    0xff, 0xff, 0x0b, 0x06, 0x00, 0x00, 0xc7, 0xff, 0xff, 0xff, 0xed, 0x03, 0x00,
    0x00, 0xea, 0x0b, 0x00, 0x00, 0x25, 0xff, 0xff, 0xff, 0xcb, 0xfc, 0xff, 0xff,
    0x9d, 0xfe, 0xff, 0xff, 0x10, 0x05, 0x00, 0x00, 0x80, 0x02, 0x00, 0x00, 0x3b,
    0xff, 0xff, 0xff, 0xdf, 0x03, 0x00, 0x00, 0x86, 0x08, 0x00, 0x00, 0x11, 0xfc,
    0xff, 0xff, 0x65, 0xff, 0xff, 0xff, 0x53, 0x05, 0x00, 0x00, 0xa1, 0x00, 0x00,
    0x00, 0x19, 0xfa, 0xff, 0xff, 0x5b, 0x07, 0x00, 0x00, 0x82, 0xfe, 0xff, 0xff,
    0x13, 0x03, 0x00, 0x00, 0x5e, 0xfd, 0xff, 0xff, 0x5f, 0x01, 0x00, 0x00, 0xdc,
    0x07, 0x00, 0x00, 0xa8, 0x0b, 0x00, 0x00, 0x42, 0xfe, 0xff, 0xff, 0x95, 0x03,
    0x00, 0x00, 0x9c, 0xfd, 0xff, 0xff, 0x9e, 0xfd, 0xff, 0xff, 0x00, 0x00, 0x00,
    0x02, 0x10, 0x00, 0x00, 0x00, 0x05, 0x00, 0x00, 0x00, 0x10, 0x00, 0x00, 0x00,
    0x50, 0x00, 0x00, 0x00, 0x01, 0x00, 0x00, 0x00, 0x20, 0x00, 0x00, 0x00, 0x3d,
    0x00, 0x00, 0x00, 0x73, 0x65, 0x71, 0x75, 0x65, 0x6e, 0x74, 0x69, 0x61, 0x6c,
    0x5f, 0x33, 0x37, 0x2f, 0x71, 0x75, 0x61, 0x6e, 0x74, 0x5f, 0x64, 0x65, 0x6e,
    0x73, 0x65, 0x5f, 0x31, 0x31, 0x32, 0x2f, 0x42, 0x69, 0x61, 0x73, 0x41, 0x64,
    0x64, 0x2f, 0x52, 0x65, 0x61, 0x64, 0x56, 0x61, 0x72, 0x69, 0x61, 0x62, 0x6c,
    0x65, 0x4f, 0x70, 0x2f, 0x72, 0x65, 0x73, 0x6f, 0x75, 0x72, 0x63, 0x65, 0x00,
    0x00, 0x00, 0x4c, 0xfe, 0xff, 0xff, 0x08, 0x00, 0x00, 0x00, 0x0c, 0x00, 0x00,
    0x00, 0x01, 0x00, 0x00, 0x00, 0xd5, 0x8b, 0xe1, 0x37, 0x01, 0x00, 0x00, 0x00,
    0x00, 0x00, 0x00, 0x00, 0x00, 0x00, 0x00, 0x00, 0x3e, 0xfe, 0xff, 0xff, 0x04,
    0x00, 0x00, 0x00, 0x80, 0x00, 0x00, 0x00, 0xe1, 0xf8, 0xff, 0xff, 0x50, 0xfb,
    0xff, 0xff, 0x3d, 0x04, 0x00, 0x00, 0xa3, 0xfb, 0xff, 0xff, 0x38, 0x02, 0x00,
    0x00, 0x3c, 0xfb, 0xff, 0xff, 0xc4, 0xfe, 0xff, 0xff, 0x54, 0x05, 0x00, 0x00,
    0x75, 0x0b, 0x00, 0x00, 0x93, 0xf6, 0xff, 0xff, 0x7a, 0xfd, 0xff, 0xff, 0xf7,
    0xfe, 0xff, 0xff, 0xe9, 0xfd, 0xff, 0xff, 0x47, 0x03, 0x00, 0x00, 0xeb, 0xfb,
    0xff, 0xff, 0xeb, 0x00, 0x00, 0x00, 0xb6, 0x06, 0x00, 0x00, 0x07, 0xf5, 0xff,
    0xff, 0x26, 0xfe, 0xff, 0xff, 0x82, 0x07, 0x00, 0x00, 0xb2, 0x0d, 0x00, 0x00,
    0x0c, 0xf9, 0xff, 0xff, 0x71, 0xfe, 0xff, 0xff, 0xfb, 0xf4, 0xff, 0xff, 0xe1,
    0x06, 0x00, 0x00, 0x29, 0x0b, 0x00, 0x00, 0xb8, 0xfe, 0xff, 0xff, 0xd2, 0x0c,
    0x00, 0x00, 0x40, 0xff, 0xff, 0xff, 0x22, 0x12, 0x00, 0x00, 0xaa, 0x00, 0x00,
    0x00, 0xb7, 0x07, 0x00, 0x00, 0xae, 0xfe, 0xff, 0xff, 0x00, 0x00, 0x00, 0x02,
    0x10, 0x00, 0x00, 0x00, 0x04, 0x00, 0x00, 0x00, 0x10, 0x00, 0x00, 0x00, 0x50,
    0x00, 0x00, 0x00, 0x01, 0x00, 0x00, 0x00, 0x20, 0x00, 0x00, 0x00, 0x3d, 0x00,
    0x00, 0x00, 0x73, 0x65, 0x71, 0x75, 0x65, 0x6e, 0x74, 0x69, 0x61, 0x6c, 0x5f,
    0x33, 0x37, 0x2f, 0x71, 0x75, 0x61, 0x6e, 0x74, 0x5f, 0x64, 0x65, 0x6e, 0x73,
    0x65, 0x5f, 0x31, 0x31, 0x31, 0x2f, 0x42, 0x69, 0x61, 0x73, 0x41, 0x64, 0x64,
    0x2f, 0x52, 0x65, 0x61, 0x64, 0x56, 0x61, 0x72, 0x69, 0x61, 0x62, 0x6c, 0x65,
    0x4f, 0x70, 0x2f, 0x72, 0x65, 0x73, 0x6f, 0x75, 0x72, 0x63, 0x65, 0x00, 0x00,
    0x00, 0x5c, 0xff, 0xff, 0xff, 0x08, 0x00, 0x00, 0x00, 0x0c, 0x00, 0x00, 0x00,
    0x01, 0x00, 0x00, 0x00, 0xd0, 0xac, 0x78, 0x37, 0x01, 0x00, 0x00, 0x00, 0x00,
    0x00, 0x00, 0x00, 0x00, 0x00, 0x00, 0x00, 0x00, 0x00, 0x00, 0x00, 0x00, 0x00,
    0x0a, 0x00, 0x0c, 0x00, 0x00, 0x00, 0x04, 0x00, 0x08, 0x00, 0x0a, 0x00, 0x00,
    0x00, 0x10, 0x00, 0x00, 0x00, 0x04, 0x00, 0x00, 0x00, 0x01, 0x00, 0x00, 0x00,
    0x02, 0x00, 0x00, 0x00, 0x01, 0x00, 0x00, 0x00, 0x00, 0x00, 0x00, 0x00, 0x0c,
    0x00, 0x10, 0x00, 0x0b, 0x00, 0x00, 0x00, 0x0c, 0x00, 0x04, 0x00, 0x0c, 0x00,
    0x00, 0x00, 0x72, 0x00, 0x00, 0x00, 0x00, 0x00, 0x00, 0x72, 0x01, 0x00, 0x00,
    0x00, 0x7a, 0xff, 0xff, 0xff, 0x00, 0x00, 0x00, 0x09, 0x10, 0x00, 0x00, 0x00,
    0x03, 0x00, 0x00, 0x00, 0x18, 0x00, 0x00, 0x00, 0x34, 0x00, 0x00, 0x00, 0x03,
    0x00, 0x00, 0x00, 0x01, 0x00, 0x00, 0x00, 0x10, 0x00, 0x00, 0x00, 0x02, 0x00,
    0x00, 0x00, 0x0c, 0x00, 0x00, 0x00, 0x74, 0x66, 0x6c, 0x2e, 0x71, 0x75, 0x61,
    0x6e, 0x74, 0x69, 0x7a, 0x65, 0x00, 0x00, 0x00, 0x00, 0x0c, 0x00, 0x0c, 0x00,
    0x00, 0x00, 0x00, 0x00, 0x04, 0x00, 0x08, 0x00, 0x0c, 0x00, 0x00, 0x00, 0x08,
    0x00, 0x00, 0x00, 0x0c, 0x00, 0x00, 0x00, 0x01, 0x00, 0x00, 0x00, 0xaa, 0x83,
    0x92, 0x3b, 0x01, 0x00, 0x00, 0x00, 0x0f, 0x00, 0x00, 0x00, 0x00, 0x00, 0x00,
    0x00, 0x00, 0x00, 0x06, 0x00, 0x08, 0x00, 0x04, 0x00, 0x06, 0x00, 0x00, 0x00,
    0x04, 0x00, 0x00, 0x00, 0x08, 0x00, 0x00, 0x00, 0xff, 0xff, 0xff, 0xff, 0x20,
    0x00, 0x00, 0x00, 0x00, 0x00, 0x0e, 0x00, 0x18, 0x00, 0x08, 0x00, 0x07, 0x00,
    0x0c, 0x00, 0x10, 0x00, 0x14, 0x00, 0x0e, 0x00, 0x00, 0x00, 0x00, 0x00, 0x00,
    0x02, 0x10, 0x00, 0x00, 0x00, 0x02, 0x00, 0x00, 0x00, 0x10, 0x00, 0x00, 0x00,
    0x3c, 0x00, 0x00, 0x00, 0x01, 0x00, 0x00, 0x00, 0x02, 0x00, 0x00, 0x00, 0x24,
    0x00, 0x00, 0x00, 0x73, 0x65, 0x71, 0x75, 0x65, 0x6e, 0x74, 0x69, 0x61, 0x6c,
    0x5f, 0x33, 0x37, 0x2f, 0x71, 0x75, 0x61, 0x6e, 0x74, 0x5f, 0x66, 0x6c, 0x61,
    0x74, 0x74, 0x65, 0x6e, 0x5f, 0x33, 0x37, 0x2f, 0x43, 0x6f, 0x6e, 0x73, 0x74,
    0x00, 0x00, 0x00, 0x00, 0x04, 0x00, 0x06, 0x00, 0x04, 0x00, 0x00, 0x00, 0x00,
    0x00, 0x0e, 0x00, 0x14, 0x00, 0x04, 0x00, 0x00, 0x00, 0x08, 0x00, 0x0c, 0x00,
    0x10, 0x00, 0x0e, 0x00, 0x00, 0x00, 0x10, 0x00, 0x00, 0x00, 0x01, 0x00, 0x00,
    0x00, 0x18, 0x00, 0x00, 0x00, 0x2c, 0x00, 0x00, 0x00, 0x03, 0x00, 0x00, 0x00,
    0x01, 0x00, 0x00, 0x00, 0x10, 0x00, 0x00, 0x00, 0x02, 0x00, 0x00, 0x00, 0x10,
    0x00, 0x00, 0x00, 0x66, 0x6c, 0x61, 0x74, 0x74, 0x65, 0x6e, 0x5f, 0x33, 0x37,
    0x5f, 0x69, 0x6e, 0x70, 0x75, 0x74, 0x00, 0x00, 0x00, 0x00, 0xfc, 0xff, 0xff,
    0xff, 0x04, 0x00, 0x04, 0x00, 0x04, 0x00, 0x00, 0x00,
};
const int model_len = 5248;


#endif //MODEL_DATA_H