#ifndef MODEL_DATA_H
#define MODEL_DATA_H


// This is a TensorFlow Lite model file that has been converted into a C data
// array using the tensorflow.lite.util.convert_bytes_to_c_source() function.
// This form is useful for compiling into a binary for devices that don't have a
// file system.


// We need to keep the data array aligned on some architectures.
#ifdef __has_attribute
#define HAVE_ATTRIBUTE(x) __has_attribute(x)
#else
#define HAVE_ATTRIBUTE(x) 0
#endif
#if HAVE_ATTRIBUTE(aligned) || (defined(__GNUC__) && !defined(__clang__))
#define DATA_ALIGN_ATTRIBUTE __attribute__((aligned(4)))
#else
#define DATA_ALIGN_ATTRIBUTE
#endif

const unsigned char model[] DATA_ALIGN_ATTRIBUTE = {
    0x28, 0x00, 0x00, 0x00, 0x54, 0x46, 0x4c, 0x33, 0x00, 0x00, 0x00, 0x00, 0x00,
    0x00, 0x00, 0x00, 0x00, 0x00, 0x00, 0x00, 0x00, 0x00, 0x12, 0x00, 0x1c, 0x00,
    0x04, 0x00, 0x08, 0x00, 0x0c, 0x00, 0x10, 0x00, 0x14, 0x00, 0x00, 0x00, 0x18,
    0x00, 0x12, 0x00, 0x00, 0x00, 0x03, 0x00, 0x00, 0x00, 0x20, 0x11, 0x00, 0x00,
    0x2c, 0x0b, 0x00, 0x00, 0x14, 0x0b, 0x00, 0x00, 0x3c, 0x00, 0x00, 0x00, 0x04,
    0x00, 0x00, 0x00, 0x01, 0x00, 0x00, 0x00, 0x0c, 0x00, 0x00, 0x00, 0x08, 0x00,
    0x0c, 0x00, 0x04, 0x00, 0x08, 0x00, 0x08, 0x00, 0x00, 0x00, 0x08, 0x00, 0x00,
    0x00, 0x0d, 0x00, 0x00, 0x00, 0x13, 0x00, 0x00, 0x00, 0x6d, 0x69, 0x6e, 0x5f,
    0x72, 0x75, 0x6e, 0x74, 0x69, 0x6d, 0x65, 0x5f, 0x76, 0x65, 0x72, 0x73, 0x69,
    0x6f, 0x6e, 0x00, 0x0e, 0x00, 0x00, 0x00, 0xc0, 0x0a, 0x00, 0x00, 0xac, 0x0a,
    0x00, 0x00, 0x10, 0x0a, 0x00, 0x00, 0x6c, 0x09, 0x00, 0x00, 0x58, 0x09, 0x00,
    0x00, 0x34, 0x09, 0x00, 0x00, 0x20, 0x05, 0x00, 0x00, 0x0c, 0x01, 0x00, 0x00,
    0x78, 0x00, 0x00, 0x00, 0x6c, 0x00, 0x00, 0x00, 0x58, 0x00, 0x00, 0x00, 0x44,
    0x00, 0x00, 0x00, 0x30, 0x00, 0x00, 0x00, 0x04, 0x00, 0x00, 0x00, 0x26, 0xf6,
    0xff, 0xff, 0x04, 0x00, 0x00, 0x00, 0x10, 0x00, 0x00, 0x00, 0x31, 0x2e, 0x35,
    0x2e, 0x30, 0x00, 0x00, 0x00, 0x00, 0x00, 0x00, 0x00, 0x00, 0x00, 0x00, 0x00,
    0x00, 0x00, 0x00, 0x00, 0x00, 0x00, 0x00, 0x00, 0x00, 0x00, 0x00, 0x00, 0xbc,
    0xef, 0xff, 0xff, 0x00, 0x00, 0x00, 0x00, 0x00, 0x00, 0x00, 0x00, 0x00, 0x00,
    0x00, 0x00, 0xcc, 0xef, 0xff, 0xff, 0x00, 0x00, 0x00, 0x00, 0x00, 0x00, 0x00,
    0x00, 0x00, 0x00, 0x00, 0x00, 0xdc, 0xef, 0xff, 0xff, 0x00, 0x00, 0x00, 0x00,
    0x00, 0x00, 0x00, 0x00, 0x00, 0x00, 0x00, 0x00, 0xec, 0xef, 0xff, 0xff, 0x00,
    0x00, 0x00, 0x00, 0x86, 0xf6, 0xff, 0xff, 0x04, 0x00, 0x00, 0x00, 0x80, 0x00,
    0x00, 0x00, 0x76, 0xb9, 0x29, 0xbe, 0xf7, 0x36, 0xea, 0x3c, 0x82, 0x90, 0x3b,
    0x3e, 0xa0, 0xbb, 0x2d, 0x3e, 0xa3, 0x34, 0x44, 0x3e, 0x03, 0x02, 0xf1, 0xbe,
    0xaa, 0xfa, 0x58, 0xbe, 0x48, 0x41, 0x8d, 0xbe, 0x29, 0x04, 0xce, 0xbe, 0xa5,
    0xaf, 0x45, 0x3e, 0x32, 0xc0, 0xec, 0x3c, 0x5e, 0xb9, 0x11, 0xbe, 0xce, 0x1d,
    0x5f, 0xbe, 0x3d, 0x3c, 0xbb, 0xbe, 0x54, 0x3d, 0x2f, 0x3e, 0x14, 0x82, 0xd7,
    0x3e, 0x2c, 0xc7, 0x37, 0xbe, 0x46, 0x62, 0x47, 0x3d, 0x13, 0x8d, 0xa5, 0x3d,
    0xfd, 0xe5, 0xd4, 0x3e, 0x1d, 0x74, 0xbb, 0x3d, 0x55, 0x3c, 0x9d, 0x3e, 0xa7,
    0x57, 0x02, 0xbf, 0x53, 0xa3, 0x8f, 0x3e, 0xbb, 0x3d, 0x40, 0xbe, 0x73, 0x2d,
    0xce, 0x3e, 0x34, 0xfd, 0xbe, 0x3e, 0xba, 0xea, 0xfc, 0xbe, 0xc9, 0xb1, 0x97,
    0xbd, 0x0b, 0x25, 0x3a, 0x3d, 0x36, 0x1b, 0x9a, 0x3e, 0x22, 0xd7, 0x79, 0x3e,
    0x00, 0x00, 0x00, 0x00, 0x16, 0xf7, 0xff, 0xff, 0x04, 0x00, 0x00, 0x00, 0x00,
    0x04, 0x00, 0x00, 0x21, 0xe1, 0xd5, 0x1e, 0x0d, 0xd0, 0x3e, 0x54, 0x4d, 0x22,
    0x22, 0x5b, 0x2c, 0xb6, 0xe6, 0x51, 0xf2, 0xf0, 0xcc, 0x52, 0x1c, 0xf2, 0x44,
    0x33, 0xdb, 0x1a, 0x5a, 0xd3, 0x1e, 0x1d, 0x1a, 0xbe, 0xb2, 0x0d, 0xf4, 0xc7,
    0xeb, 0xef, 0x26, 0xe8, 0xe4, 0xf2, 0x41, 0xee, 0xcc, 0x01, 0xb2, 0x0c, 0x2a,
    0xfa, 0x42, 0xdc, 0xbc, 0x4c, 0x18, 0x20, 0xed, 0x0c, 0xef, 0x56, 0x00, 0x47,
    0xa7, 0x13, 0xeb, 0xb7, 0x97, 0xdf, 0x62, 0x45, 0x26, 0x0a, 0x36, 0x1b, 0x17,
    0x45, 0xb3, 0xf1, 0xd1, 0x51, 0x61, 0x3a, 0xf3, 0xa4, 0xec, 0x20, 0xbb, 0xf7,
    0xe8, 0x16, 0x3e, 0x5e, 0xec, 0xaf, 0xfb, 0x36, 0x58, 0x06, 0x3c, 0xc5, 0x1a,
    0x0d, 0xfe, 0x08, 0x47, 0xc3, 0xad, 0xb6, 0x52, 0x1e, 0xca, 0xbc, 0x35, 0xf3,
    0x4a, 0x14, 0x4a, 0x0b, 0xa7, 0x4e, 0x2a, 0x17, 0x46, 0xf5, 0xc3, 0x8a, 0x48,
    0xb7, 0x2d, 0x1c, 0xf3, 0x00, 0xed, 0x19, 0x44, 0xa9, 0x0b, 0xe3, 0x4f, 0xda,
    0xcc, 0xf1, 0xdb, 0xc1, 0x10, 0x34, 0xff, 0xad, 0x4f, 0x41, 0x41, 0x3b, 0x24,
    0x2a, 0x07, 0x84, 0xb1, 0x0a, 0xc3, 0xb2, 0xd5, 0x20, 0x0f, 0x20, 0xc2, 0xca,
    0xe1, 0xd6, 0x0c, 0xfb, 0x4d, 0x05, 0x10, 0x56, 0xc5, 0x21, 0xb0, 0x9c, 0x96,
    0xaa, 0x55, 0x2b, 0xa4, 0xdc, 0xf6, 0x27, 0xb1, 0xb7, 0x42, 0x33, 0x0b, 0xd2,
    0x5c, 0x17, 0xb6, 0x37, 0xe8, 0xaf, 0x4a, 0xd7, 0xed, 0x12, 0x1b, 0xb5, 0x9d,
    0x23, 0x12, 0xab, 0x30, 0xac, 0xb6, 0x33, 0x33, 0x2e, 0xb4, 0x1f, 0x12, 0x0e,
    0xcf, 0x23, 0xc7, 0x54, 0xff, 0xbb, 0xbd, 0x2b, 0x4f, 0xec, 0x23, 0x09, 0xe6,
    0x20, 0xd7, 0xc0, 0xd8, 0xf1, 0xcd, 0x4b, 0xcc, 0xdf, 0x41, 0x41, 0x0a, 0x05,
    0xc8, 0xc6, 0x39, 0x30, 0xe2, 0x43, 0x34, 0xbb, 0xff, 0x2d, 0x39, 0xfd, 0x20,
    0xe0, 0xe3, 0x2c, 0x1a, 0x91, 0x60, 0xb7, 0xf9, 0xd7, 0x3a, 0x67, 0xf4, 0xf7,
    0x31, 0x1d, 0xa9, 0x03, 0xdd, 0xef, 0xe1, 0xcc, 0xb4, 0xbf, 0xff, 0xcb, 0xec,
    0x68, 0xf3, 0x5f, 0xf2, 0x2a, 0xdf, 0xf8, 0x3f, 0xca, 0x24, 0xeb, 0x13, 0xc2,
    0xe7, 0xc2, 0x1d, 0x0c, 0x08, 0x1e, 0xef, 0xca, 0x14, 0xdc, 0xf4, 0xd4, 0x05,
    0xe7, 0x42, 0xcd, 0xbf, 0xac, 0xd9, 0x50, 0xe4, 0xb9, 0x15, 0xb3, 0xa2, 0xf6,
    0xce, 0xe7, 0xf0, 0x00, 0x10, 0x41, 0x14, 0x1e, 0xab, 0xd4, 0xbd, 0x48, 0xe9,
    0x2e, 0x11, 0x55, 0x50, 0xb8, 0xcb, 0x24, 0x0d, 0x03, 0xd0, 0xeb, 0x4b, 0x3f,
    0x2a, 0xcf, 0x57, 0xe5, 0x57, 0xe6, 0x8e, 0x2f, 0xdf, 0xe9, 0x67, 0xf5, 0xf1,
    0x32, 0x11, 0xab, 0xc8, 0x2b, 0xc5, 0x1a, 0x3e, 0x21, 0xe8, 0xc1, 0x2e, 0x3e,
    0x01, 0x02, 0x1a, 0xc9, 0xff, 0x9c, 0x53, 0xeb, 0x4c, 0xd5, 0xb8, 0x05, 0xfd,
    0xfb, 0xed, 0x2f, 0x33, 0xd6, 0xbb, 0x3a, 0x35, 0x2a, 0xcb, 0x25, 0x27, 0x35,
    0xe8, 0x18, 0x4f, 0xeb, 0x54, 0xcf, 0x08, 0xc9, 0xe0, 0x14, 0x00, 0x04, 0xfe,
    0x06, 0xc8, 0xe5, 0x29, 0xc0, 0x43, 0xde, 0xcc, 0xab, 0x09, 0xef, 0x9c, 0x12,
    0xfc, 0x0c, 0x1d, 0x21, 0x37, 0x00, 0x15, 0x0d, 0xcd, 0x4e, 0xce, 0x47, 0xdd,
    0x00, 0x1f, 0xfb, 0xdc, 0xe0, 0xcd, 0xc4, 0x21, 0xc1, 0x4e, 0xfa, 0xec, 0x48,
    0x55, 0xe6, 0x5a, 0xb5, 0xd7, 0x39, 0x07, 0xd9, 0x29, 0xc8, 0xef, 0xda, 0xd7,
    0x2b, 0xc7, 0x12, 0x19, 0xdf, 0x42, 0x37, 0xff, 0x0f, 0xf2, 0x29, 0x20, 0xec,
    0xcd, 0xbd, 0x22, 0x1b, 0xa7, 0xf9, 0xc9, 0x4e, 0x2e, 0xd8, 0x4b, 0x38, 0x39,
    0x5b, 0xee, 0xee, 0xca, 0xbf, 0x39, 0x10, 0xd3, 0xf9, 0x57, 0x0a, 0x01, 0x3a,
    0x37, 0xd5, 0xb2, 0x29, 0xf3, 0xe8, 0xce, 0xfd, 0xcc, 0x1d, 0x01, 0xcc, 0xb8,
    0xb7, 0x2b, 0xb7, 0xb8, 0xec, 0x49, 0x2e, 0x44, 0x24, 0x26, 0xd3, 0x1a, 0xc0,
    0x28, 0xd3, 0xc9, 0x58, 0xb6, 0x39, 0xd3, 0xcf, 0xe0, 0x53, 0xa8, 0xfa, 0xa9,
    0x36, 0xff, 0x47, 0xf8, 0x07, 0x43, 0x67, 0x2a, 0xf8, 0xde, 0x18, 0xec, 0x2a,
    0xca, 0x22, 0x2a, 0xdd, 0xf8, 0x31, 0xaf, 0x2f, 0x2d, 0x16, 0x3c, 0x27, 0xf1,
    0x47, 0xd0, 0x2b, 0xe5, 0xd4, 0xd8, 0xe9, 0x2e, 0x0b, 0x2b, 0x1a, 0x33, 0x4a,
    0x36, 0x31, 0xea, 0x3a, 0xfa, 0x3d, 0xd2, 0x4c, 0x13, 0x24, 0xa8, 0xf7, 0xba,
    0x2f, 0xe5, 0x04, 0x42, 0xcf, 0xe8, 0x33, 0x1b, 0xc7, 0x0e, 0xcb, 0x56, 0x46,
    0x6e, 0x09, 0x3d, 0xdf, 0x15, 0xd8, 0x1a, 0x21, 0xc6, 0x43, 0xe7, 0xd9, 0x2a,
    0xb5, 0xa3, 0xd0, 0xef, 0x37, 0xd5, 0x27, 0x6c, 0x15, 0xb3, 0xe4, 0x39, 0x43,
    0xc2, 0x9f, 0xb7, 0xd9, 0x2f, 0x13, 0x16, 0x09, 0x07, 0x3d, 0xbf, 0xf6, 0xc1,
    0xb5, 0xb5, 0x46, 0xf2, 0xc2, 0x01, 0x30, 0xc3, 0x03, 0xce, 0xe5, 0x2d, 0xcf,
    0x3a, 0x34, 0x4c, 0xde, 0x56, 0x54, 0xfa, 0xdd, 0x50, 0xc4, 0xcf, 0x4b, 0x2e,
    0x1a, 0x03, 0x3c, 0xf9, 0x61, 0xf3, 0x16, 0xd6, 0x50, 0x1a, 0xd0, 0x31, 0xc1,
    0x20, 0x33, 0xc6, 0x13, 0x1d, 0x16, 0xa6, 0xc3, 0xb2, 0xfb, 0x39, 0xad, 0xdc,
    0xf0, 0x59, 0x12, 0x19, 0xef, 0xc1, 0xff, 0xfe, 0x38, 0xc5, 0xd8, 0x4b, 0x11,
    0xd3, 0xe7, 0x55, 0x34, 0x1c, 0xdd, 0x3d, 0xbc, 0x55, 0xcd, 0xbd, 0xf4, 0xde,
    0xe4, 0x08, 0xde, 0x4a, 0x39, 0xea, 0x2d, 0xcf, 0x0c, 0x85, 0x09, 0x3b, 0xd0,
    0x41, 0x05, 0xf9, 0xaf, 0xe6, 0x07, 0x40, 0xf5, 0x2f, 0x23, 0xf0, 0xc7, 0x0d,
    0xfe, 0x08, 0x36, 0xd7, 0x11, 0xec, 0x45, 0x44, 0x92, 0x17, 0xfb, 0x04, 0xcd,
    0x1b, 0x47, 0xaf, 0xcf, 0xbf, 0x4b, 0xd0, 0x3e, 0xe9, 0x1f, 0x0a, 0x3d, 0x43,
    0xf8, 0x2b, 0x15, 0xec, 0x07, 0xce, 0x57, 0xfc, 0xa7, 0xd5, 0x5b, 0xff, 0x35,
    0x39, 0xf8, 0x04, 0xf3, 0x03, 0xd7, 0x32, 0x3f, 0x35, 0xd6, 0xf7, 0xfc, 0xe7,
    0x47, 0xd3, 0xd4, 0x0d, 0xff, 0xfb, 0xf1, 0x24, 0x17, 0xdc, 0xd5, 0x2e, 0xfa,
    0xa6, 0x4a, 0xa7, 0xca, 0xe5, 0x39, 0x38, 0xfe, 0x44, 0xd7, 0x29, 0xd1, 0x18,
    0xc4, 0xaa, 0xec, 0x3f, 0xa5, 0x33, 0x15, 0x55, 0x69, 0x3f, 0x55, 0x2a, 0x42,
    0xe1, 0x1a, 0xda, 0xd4, 0xc0, 0x4f, 0xc8, 0x56, 0xe0, 0xc8, 0x46, 0x35, 0x07,
    0x3b, 0x63, 0x44, 0xaf, 0xbd, 0x18, 0x26, 0x5d, 0x4c, 0xae, 0xd1, 0x38, 0xc5,
    0x9e, 0x2b, 0x08, 0xe3, 0x89, 0xa4, 0x6b, 0x0d, 0x37, 0x90, 0xf5, 0xe0, 0x09,
    0x4c, 0xd1, 0xcc, 0x15, 0xcc, 0x05, 0xde, 0x50, 0xc5, 0xc8, 0xfd, 0xff, 0x26,
    0x27, 0x0f, 0xbe, 0x22, 0x03, 0xb5, 0xb9, 0xd3, 0xe8, 0xb5, 0xd5, 0xd1, 0xca,
    0x13, 0x2f, 0x81, 0xde, 0x22, 0x57, 0x53, 0x37, 0xf3, 0x3c, 0xf9, 0xe6, 0x42,
    0x59, 0xc4, 0xf6, 0x75, 0xfc, 0xb1, 0xb9, 0xd2, 0x43, 0xb5, 0x20, 0x37, 0xe8,
    0x5a, 0xe7, 0xff, 0x4f, 0xed, 0xb5, 0x4b, 0xd1, 0x2d, 0x1b, 0xfb, 0x3a, 0xd1,
    0xe4, 0x1b, 0x4e, 0x01, 0x1a, 0x06, 0x57, 0xf6, 0x46, 0xdf, 0x46, 0xfb, 0x24,
    0xfe, 0xd0, 0xe2, 0x5a, 0x1a, 0xda, 0xc3, 0x29, 0xe5, 0x3d, 0xd8, 0xc6, 0xab,
    0x44, 0x15, 0xcd, 0x10, 0xcc, 0x17, 0xbb, 0xb7, 0x10, 0xfa, 0x4b, 0xa4, 0x08,
    0x36, 0x38, 0xe3, 0x20, 0xb7, 0xce, 0xbc, 0xea, 0xde, 0xc6, 0x29, 0xbb, 0xf7,
    0xb4, 0xf2, 0xe5, 0x11, 0xf0, 0x1d, 0xef, 0x07, 0x03, 0xb2, 0xd2, 0xdd, 0x30,
    0xda, 0x01, 0x3e, 0x28, 0x07, 0xfc, 0xe4, 0xf3, 0xb8, 0xfd, 0xc4, 0xfb, 0xc1,
    0x00, 0x00, 0x00, 0x00, 0x26, 0xfb, 0xff, 0xff, 0x04, 0x00, 0x00, 0x00, 0x00,
    0x04, 0x00, 0x00, 0x50, 0x46, 0xb6, 0x43, 0x46, 0x62, 0x42, 0x1a, 0xdd, 0xe0,
    0xfd, 0x1a, 0x03, 0xc6, 0x99, 0xef, 0xb7, 0x33, 0xa0, 0x92, 0x5f, 0xa8, 0xce,
    0x36, 0x0d, 0x9c, 0x69, 0x4a, 0x6e, 0xff, 0x6e, 0xa1, 0x0d, 0x05, 0xbb, 0xbb,
    0xd3, 0x2b, 0x33, 0xd5, 0xc8, 0x18, 0xb2, 0x41, 0x35, 0x1a, 0x16, 0x44, 0xff,
    0x0e, 0xc9, 0x21, 0xef, 0xe1, 0xeb, 0x0f, 0x05, 0xe0, 0x58, 0x31, 0x33, 0x43,
    0xc1, 0x06, 0x29, 0x00, 0xcb, 0xbd, 0x09, 0xdb, 0xf1, 0x37, 0x1a, 0x0f, 0x2c,
    0x1d, 0x11, 0x22, 0x0a, 0xd7, 0xd2, 0xe2, 0x22, 0xbc, 0x12, 0xc7, 0xc3, 0xa4,
    0x6e, 0x18, 0xb1, 0xbb, 0xd4, 0x33, 0x44, 0xa9, 0xe4, 0x21, 0x9b, 0x4a, 0xe8,
    0x02, 0x5b, 0x15, 0xe9, 0xa7, 0xf2, 0xe8, 0x38, 0x3a, 0xc9, 0xac, 0xe1, 0x2d,
    0x23, 0xdc, 0x77, 0x22, 0x1f, 0x4b, 0x74, 0x5b, 0x4b, 0x64, 0x67, 0x72, 0x79,
    0x01, 0xa1, 0xa5, 0x28, 0x1b, 0x20, 0x40, 0x4f, 0xa1, 0xa4, 0xc8, 0xed, 0xaa,
    0xa3, 0x46, 0x63, 0xca, 0x39, 0xff, 0x65, 0x07, 0xe4, 0x5a, 0xcf, 0xb2, 0xee,
    0x2b, 0x02, 0x14, 0x32, 0xce, 0xf4, 0x34, 0x5d, 0x3c, 0x79, 0xb2, 0x21, 0xa6,
    0xd3, 0x4b, 0x6e, 0xe8, 0xbf, 0xe4, 0x6c, 0x46, 0xe2, 0x5b, 0xb6, 0x2e, 0xaa,
    0xf3, 0xda, 0x05, 0xbf, 0x0c, 0x00, 0x22, 0x2c, 0x10, 0x08, 0x74, 0x4a, 0x3e,
    0xe1, 0xdb, 0xb9, 0x1e, 0x1f, 0x6f, 0xb1, 0xdd, 0x05, 0x21, 0x69, 0xb3, 0x34,
    0x57, 0x28, 0xc4, 0x26, 0xcf, 0x04, 0x50, 0x3b, 0xa9, 0xcd, 0x60, 0xb9, 0x55,
    0x1b, 0x4d, 0x64, 0xf4, 0x02, 0xd2, 0xaf, 0xe0, 0xd0, 0x43, 0xac, 0xf7, 0xd5,
    0x54, 0x3c, 0x52, 0xfd, 0x44, 0x36, 0x51, 0xd9, 0x1f, 0xfe, 0x00, 0x94, 0xda,
    0x1d, 0xca, 0xe2, 0xe8, 0x26, 0xb3, 0xe3, 0x42, 0xd5, 0xc1, 0xad, 0xa9, 0xf1,
    0x55, 0xaa, 0x63, 0x0f, 0x32, 0xe0, 0x45, 0x37, 0x61, 0x32, 0xbe, 0xa0, 0x4a,
    0x61, 0xe2, 0x0b, 0xc9, 0x04, 0xc1, 0x3f, 0x33, 0xfe, 0xd7, 0x2d, 0xaa, 0x3b,
    0x17, 0xab, 0x2c, 0xd7, 0x21, 0x21, 0x35, 0x19, 0xf8, 0xff, 0xd2, 0xad, 0x29,
    0xf6, 0x5b, 0xe0, 0x07, 0x01, 0xce, 0x8d, 0xa7, 0xb1, 0x57, 0x04, 0xce, 0x3b,
    0xb6, 0xba, 0xe1, 0xcc, 0x45, 0x62, 0xd1, 0xef, 0x9b, 0x5f, 0xd6, 0x29, 0x34,
    0xb8, 0xa9, 0x4c, 0xda, 0xf1, 0xe4, 0xe4, 0x06, 0xb0, 0xc7, 0xe5, 0x06, 0xc8,
    0x55, 0x42, 0xfd, 0x13, 0xef, 0xaf, 0xd9, 0x0e, 0x26, 0xe1, 0xfc, 0xf3, 0x39,
    0xbb, 0xa1, 0xbe, 0x05, 0xc7, 0xe1, 0x3f, 0x16, 0x03, 0xf3, 0x63, 0xe3, 0xdc,
    0x10, 0x49, 0xe9, 0xc7, 0x21, 0xb8, 0x0c, 0xec, 0xf0, 0xe8, 0xc6, 0x37, 0xd3,
    0x14, 0x08, 0xeb, 0xc3, 0x95, 0x45, 0xcb, 0xb9, 0xd2, 0x01, 0x45, 0xf5, 0x23,
    0x4e, 0x0a, 0x03, 0x56, 0x1d, 0xb7, 0xf7, 0x48, 0xd5, 0x55, 0xdf, 0x3c, 0xdb,
    0x08, 0xc9, 0xec, 0xcd, 0x0f, 0xb9, 0x0b, 0x9c, 0xa9, 0xef, 0x0a, 0xfc, 0x4a,
    0xf0, 0x39, 0xb5, 0x0e, 0x60, 0xd0, 0x42, 0x49, 0x43, 0xb4, 0xb7, 0x1f, 0x09,
    0xd5, 0x08, 0x1d, 0xe0, 0x04, 0x32, 0xee, 0x0c, 0x09, 0x5b, 0xfc, 0xb6, 0x0a,
    0x58, 0xc4, 0xd1, 0x6e, 0xfc, 0xde, 0x5a, 0xea, 0x22, 0x04, 0x98, 0x17, 0x0b,
    0x0a, 0xf7, 0xcb, 0xc5, 0xed, 0x07, 0x69, 0xc8, 0xeb, 0xd2, 0xfe, 0x65, 0x16,
    0xa7, 0xf5, 0x2c, 0x53, 0x3e, 0xb2, 0xe5, 0x99, 0x2e, 0x8f, 0xc2, 0xbc, 0xe6,
    0x8d, 0xa8, 0x20, 0xdb, 0xc6, 0xe9, 0xab, 0x38, 0xe6, 0xc1, 0xcc, 0xb4, 0x26,
    0xac, 0xb6, 0x5a, 0xec, 0x57, 0x36, 0x16, 0xd0, 0x43, 0xc0, 0x18, 0x31, 0xce,
    0x35, 0xa9, 0xf7, 0x0f, 0xd6, 0x1f, 0xdc, 0xb3, 0x1d, 0x0a, 0x0f, 0x0a, 0xde,
    0xfa, 0xf0, 0x06, 0xdb, 0xbb, 0x28, 0x33, 0xcb, 0xfc, 0x0c, 0xcf, 0xd3, 0x36,
    0xad, 0x56, 0xe1, 0x1e, 0x9d, 0xde, 0xd6, 0xc0, 0x55, 0x07, 0xc5, 0x9c, 0x2d,
    0x55, 0xa4, 0xc1, 0x23, 0xf6, 0x0a, 0xd4, 0x33, 0x0e, 0xda, 0x5c, 0x15, 0xa4,
    0x3f, 0x08, 0xd2, 0xb2, 0xdf, 0xfa, 0xb3, 0x01, 0x0d, 0xe5, 0x46, 0x3a, 0x63,
    0xc1, 0x36, 0xe8, 0x2a, 0x0f, 0x03, 0x03, 0xaa, 0xf7, 0x08, 0x3f, 0xd3, 0xb2,
    0x4a, 0x69, 0x9c, 0xaa, 0xa7, 0x01, 0x07, 0x0c, 0xec, 0xd3, 0x97, 0xa9, 0xe4,
    0xcd, 0xd2, 0xf0, 0x34, 0x65, 0xfa, 0xc1, 0x1b, 0xac, 0x41, 0x04, 0xa4, 0x61,
    0xa4, 0xa3, 0x2a, 0xf8, 0x01, 0x31, 0x53, 0x35, 0xac, 0x17, 0xab, 0xeb, 0xc8,
    0xbc, 0xbd, 0x1b, 0x3e, 0x13, 0x1f, 0xa5, 0xc2, 0xc7, 0x12, 0x25, 0xdb, 0x1a,
    0xd4, 0x33, 0xb2, 0x36, 0xff, 0x0a, 0xec, 0xe9, 0x2d, 0x64, 0x14, 0x20, 0xdf,
    0x0a, 0xcd, 0x61, 0x0c, 0x4b, 0x00, 0xdc, 0x9d, 0x2e, 0x60, 0xa0, 0xb1, 0x52,
    0x08, 0xaa, 0xad, 0xa3, 0xed, 0x36, 0x5b, 0xea, 0xaa, 0xf0, 0x1d, 0xcb, 0xe4,
    0x0a, 0x3c, 0x07, 0x62, 0xf9, 0xf1, 0x12, 0xe8, 0x35, 0xdc, 0xb5, 0xb6, 0x51,
    0xd6, 0xf3, 0xf1, 0xb2, 0xcd, 0x40, 0xe6, 0x2d, 0x47, 0xb9, 0xbc, 0x67, 0xb1,
    0xe2, 0x4b, 0x4c, 0xaf, 0xac, 0xab, 0xb6, 0x44, 0xf9, 0xf5, 0xf0, 0xdb, 0x10,
    0x1c, 0xc8, 0xc5, 0xb5, 0xa7, 0xd6, 0x63, 0x3d, 0xe1, 0xd2, 0xd9, 0xf1, 0xb3,
    0x15, 0xc3, 0x45, 0x4c, 0x10, 0x3c, 0x0e, 0xdc, 0xf4, 0x13, 0x22, 0x34, 0x69,
    0x52, 0x62, 0x1e, 0x3b, 0x14, 0xcd, 0x13, 0xe6, 0xc1, 0xde, 0x97, 0xd1, 0x55,
    0x4f, 0x1b, 0xe1, 0x11, 0x40, 0xc8, 0xce, 0x0f, 0x5f, 0x3f, 0xf0, 0xab, 0x4f,
    0x03, 0xe2, 0x0a, 0x5f, 0x1c, 0x5c, 0xe9, 0xfd, 0xf0, 0xed, 0x1c, 0x38, 0x53,
    0xec, 0xb1, 0xb5, 0x47, 0x5f, 0xe2, 0xf8, 0xe5, 0x0b, 0x45, 0x61, 0xc8, 0xf6,
    0xd6, 0xfb, 0x43, 0x05, 0xf9, 0xf6, 0xa8, 0x1d, 0x37, 0x90, 0xda, 0x59, 0x06,
    0xb3, 0x0d, 0x98, 0x39, 0x3d, 0xa3, 0xbe, 0xa2, 0x0e, 0xea, 0xa5, 0x9c, 0xef,
    0xcb, 0xfa, 0x4f, 0xf5, 0xe7, 0xe5, 0xb6, 0x92, 0x4e, 0x2e, 0x29, 0xd8, 0xbb,
    0x4e, 0x64, 0xe7, 0xd3, 0xd7, 0xa7, 0xf6, 0xf3, 0xd3, 0x1c, 0xb5, 0xbf, 0xe7,
    0xb5, 0xcd, 0x3b, 0xa3, 0x07, 0x53, 0xe6, 0xe1, 0xf2, 0x52, 0x2d, 0xf9, 0x4c,
    0x24, 0xb7, 0xf7, 0xb4, 0x02, 0x36, 0xc8, 0x07, 0x36, 0x47, 0xda, 0x69, 0xc4,
    0xf5, 0xc8, 0xc6, 0x62, 0x51, 0x51, 0x29, 0x65, 0x6e, 0xa7, 0x66, 0xc3, 0xf3,
    0xaa, 0x15, 0xc0, 0x5a, 0x3d, 0x0e, 0x5b, 0x51, 0x1a, 0x2a, 0x3a, 0x43, 0x1f,
    0xad, 0xba, 0x1e, 0xe2, 0xe3, 0xaf, 0xaa, 0x19, 0xdf, 0x3f, 0xed, 0xc8, 0x60,
    0x3e, 0x3a, 0x11, 0x1c, 0x50, 0x15, 0xa9, 0xba, 0x4a, 0x2d, 0xc5, 0xed, 0x41,
    0x30, 0xe4, 0x15, 0x2a, 0xcf, 0xef, 0xd2, 0x63, 0x81, 0x24, 0x20, 0x5d, 0x84,
    0xee, 0x9a, 0xa9, 0xa1, 0xd9, 0xba, 0xd2, 0x26, 0x68, 0xf9, 0xbc, 0x3a, 0x3a,
    0x2a, 0x01, 0x31, 0x4e, 0xf7, 0x13, 0x5c, 0xde, 0xf9, 0x52, 0x2e, 0x0c, 0xdb,
    0x76, 0xbe, 0xf3, 0x43, 0x8c, 0xf6, 0x23, 0x2a, 0x2a, 0xc0, 0xa7, 0xe3, 0x0b,
    0x15, 0xa9, 0x57, 0xbc, 0xcd, 0xd8, 0x68, 0xf9, 0x06, 0x44, 0x17, 0x9e, 0x37,
    0xcf, 0x45, 0x02, 0x16, 0x5d, 0x36, 0x47, 0xf6, 0xd3, 0x64, 0x68, 0x7d, 0x68,
    0x51, 0x4e, 0x5c, 0x34, 0x57, 0x66, 0x36, 0xec, 0x31, 0x23, 0x23, 0x5a, 0xb0,
    0x21, 0x25, 0x52, 0x08, 0x9a, 0xce, 0x34, 0x3e, 0xf3, 0x2c, 0x95, 0x30, 0x8f,
    0x00, 0x00, 0x00, 0x00, 0x36, 0xff, 0xff, 0xff, 0x04, 0x00, 0x00, 0x00, 0x08,
    0x00, 0x00, 0x00, 0xff, 0xff, 0xff, 0xff, 0x20, 0x00, 0x00, 0x00, 0x00, 0x00,
    0x00, 0x00, 0x00, 0x00, 0x00, 0x00, 0x00, 0x00, 0x00, 0x00, 0x56, 0xff, 0xff,
    0xff, 0x04, 0x00, 0x00, 0x00, 0x04, 0x00, 0x00, 0x00, 0xa1, 0xf9, 0x3e, 0xbc,
    0x66, 0xff, 0xff, 0xff, 0x04, 0x00, 0x00, 0x00, 0x80, 0x00, 0x00, 0x00, 0xc5,
    0x2e, 0x2f, 0x3c, 0x66, 0x06, 0x8b, 0xbc, 0xd7, 0xc8, 0x63, 0x3d, 0x8b, 0x10,
    0x19, 0x3d, 0x64, 0x83, 0xa9, 0xbc, 0x8f, 0x48, 0x47, 0x3d, 0x63, 0x94, 0x3d,
    0x3a, 0x0f, 0xd9, 0x15, 0x3d, 0xc6, 0xb6, 0xb0, 0x3d, 0x16, 0x96, 0xd2, 0xbc,
    0xec, 0x62, 0x96, 0xbc, 0x03, 0xb7, 0x80, 0xbc, 0x94, 0xcf, 0xdb, 0x3c, 0x2b,
    0x67, 0x94, 0x3c, 0xa4, 0x95, 0x78, 0xbc, 0x10, 0x93, 0xa4, 0x3c, 0x20, 0xae,
    0x58, 0x3d, 0xd6, 0xc0, 0xbc, 0xbc, 0x36, 0x5f, 0x96, 0xbb, 0x2e, 0x2b, 0xd5,
    0x3c, 0x76, 0xd6, 0x3d, 0xbb, 0x2a, 0x94, 0x27, 0xbd, 0x58, 0xf9, 0x48, 0x3d,
    0x74, 0x53, 0x51, 0xbc, 0xb9, 0x42, 0xc5, 0x3c, 0x8e, 0x82, 0x94, 0xbc, 0xc1,
    0x64, 0xe7, 0x3b, 0xaf, 0x46, 0x57, 0x3d, 0x0e, 0xcc, 0xa9, 0x3d, 0xaa, 0x4d,
    0xd2, 0x3a, 0xa8, 0xa5, 0xe1, 0x3b, 0x87, 0xdc, 0x86, 0xbc, 0x00, 0x00, 0x00,
    0x00, 0x00, 0x00, 0x00, 0x00, 0x00, 0x00, 0x00, 0x00, 0x00, 0x00, 0x06, 0x00,
    0x08, 0x00, 0x04, 0x00, 0x06, 0x00, 0x00, 0x00, 0x04, 0x00, 0x00, 0x00, 0x80,
    0x00, 0x00, 0x00, 0xdb, 0xd1, 0xc6, 0xbc, 0xa4, 0xd2, 0x1e, 0xbc, 0x17, 0x97,
    0x6a, 0x3c, 0x7d, 0x4f, 0x63, 0xbc, 0xe3, 0xd8, 0xcb, 0x3b, 0x3d, 0x9e, 0x64,
    0xbc, 0x74, 0x65, 0xf7, 0x3b, 0xd7, 0x2a, 0xb3, 0x3c, 0x52, 0x2c, 0x19, 0x3d,
    0xe3, 0x66, 0x0f, 0xbd, 0x51, 0x47, 0x88, 0xbb, 0x13, 0xd2, 0x44, 0x3a, 0x69,
    0x00, 0x30, 0xbb, 0x63, 0x57, 0xa4, 0x3b, 0xf9, 0x0d, 0x36, 0xbc, 0x62, 0xd1,
    0x4e, 0x3c, 0x32, 0x34, 0x49, 0x3c, 0xe4, 0xbe, 0x26, 0xbd, 0xc9, 0x15, 0x3b,
    0x3c, 0x11, 0xd4, 0xce, 0x3c, 0x04, 0xf8, 0x32, 0x3d, 0xb4, 0x31, 0x4f, 0xbc,
    0x77, 0x98, 0x82, 0xbc, 0x45, 0x6c, 0x3a, 0xbd, 0xc1, 0x06, 0xee, 0x3c, 0xa8,
    0xf3, 0x1a, 0x3d, 0x41, 0x63, 0xda, 0xbb, 0x33, 0x52, 0x67, 0x3d, 0xbd, 0xc4,
    0xde, 0x3a, 0xce, 0xbc, 0x8a, 0x3d, 0x50, 0xe8, 0x4d, 0x3c, 0xb1, 0x85, 0x02,
    0x3d, 0x00, 0x00, 0x00, 0x00, 0x00, 0x00, 0x00, 0x00, 0x00, 0x00, 0x00, 0x00,
    0x0c, 0xfa, 0xff, 0xff, 0x00, 0x00, 0x00, 0x00, 0x00, 0x00, 0x00, 0x00, 0x00,
    0x00, 0x00, 0x00, 0x1c, 0xfa, 0xff, 0xff, 0x00, 0x00, 0x00, 0x00, 0x00, 0x00,
    0x00, 0x00, 0x00, 0x00, 0x00, 0x00, 0x0f, 0x00, 0x00, 0x00, 0x4d, 0x4c, 0x49,
    0x52, 0x20, 0x43, 0x6f, 0x6e, 0x76, 0x65, 0x72, 0x74, 0x65, 0x64, 0x2e, 0x00,
    0x01, 0x00, 0x00, 0x00, 0x14, 0x00, 0x00, 0x00, 0x00, 0x00, 0x0e, 0x00, 0x18,
    0x00, 0x04, 0x00, 0x08, 0x00, 0x0c, 0x00, 0x10, 0x00, 0x14, 0x00, 0x0e, 0x00,
    0x00, 0x00, 0x30, 0x01, 0x00, 0x00, 0x24, 0x01, 0x00, 0x00, 0x18, 0x01, 0x00,
    0x00, 0x14, 0x00, 0x00, 0x00, 0x04, 0x00, 0x00, 0x00, 0x04, 0x00, 0x00, 0x00,
    0x6d, 0x61, 0x69, 0x6e, 0x00, 0x00, 0x00, 0x00, 0x04, 0x00, 0x00, 0x00, 0xdc,
    0x00, 0x00, 0x00, 0x88, 0x00, 0x00, 0x00, 0x3c, 0x00, 0x00, 0x00, 0x04, 0x00,
    0x00, 0x00, 0x92, 0xff, 0xff, 0xff, 0x00, 0x00, 0x00, 0x08, 0x01, 0x00, 0x00,
    0x00, 0x18, 0x00, 0x00, 0x00, 0x0c, 0x00, 0x00, 0x00, 0x04, 0x00, 0x00, 0x00,
    0xa8, 0xfa, 0xff, 0xff, 0x01, 0x00, 0x00, 0x00, 0x0b, 0x00, 0x00, 0x00, 0x03,
    0x00, 0x00, 0x00, 0x0a, 0x00, 0x00, 0x00, 0x07, 0x00, 0x00, 0x00, 0x03, 0x00,
    0x00, 0x00, 0xc6, 0xff, 0xff, 0xff, 0x00, 0x00, 0x00, 0x08, 0x01, 0x00, 0x00,
    0x00, 0x1c, 0x00, 0x00, 0x00, 0x10, 0x00, 0x00, 0x00, 0x04, 0x00, 0x00, 0x00,
    0xb8, 0xff, 0xff, 0xff, 0x00, 0x00, 0x01, 0x01, 0x01, 0x00, 0x00, 0x00, 0x0a,
    0x00, 0x00, 0x00, 0x03, 0x00, 0x00, 0x00, 0x09, 0x00, 0x00, 0x00, 0x06, 0x00,
    0x00, 0x00, 0x02, 0x00, 0x00, 0x00, 0x00, 0x00, 0x0e, 0x00, 0x18, 0x00, 0x08,
    0x00, 0x0c, 0x00, 0x10, 0x00, 0x07, 0x00, 0x14, 0x00, 0x0e, 0x00, 0x00, 0x00,
    0x00, 0x00, 0x00, 0x08, 0x01, 0x00, 0x00, 0x00, 0x28, 0x00, 0x00, 0x00, 0x1c,
    0x00, 0x00, 0x00, 0x10, 0x00, 0x00, 0x00, 0x0c, 0x00, 0x08, 0x00, 0x06, 0x00,
    0x00, 0x00, 0x00, 0x00, 0x07, 0x00, 0x0c, 0x00, 0x00, 0x00, 0x00, 0x00, 0x01,
    0x01, 0x01, 0x00, 0x00, 0x00, 0x09, 0x00, 0x00, 0x00, 0x03, 0x00, 0x00, 0x00,
    0x08, 0x00, 0x00, 0x00, 0x05, 0x00, 0x00, 0x00, 0x01, 0x00, 0x00, 0x00, 0x00,
    0x00, 0x0a, 0x00, 0x0c, 0x00, 0x00, 0x00, 0x04, 0x00, 0x08, 0x00, 0x0a, 0x00,
    0x00, 0x00, 0x10, 0x00, 0x00, 0x00, 0x04, 0x00, 0x00, 0x00, 0x01, 0x00, 0x00,
    0x00, 0x08, 0x00, 0x00, 0x00, 0x02, 0x00, 0x00, 0x00, 0x00, 0x00, 0x00, 0x00,
    0x04, 0x00, 0x00, 0x00, 0x01, 0x00, 0x00, 0x00, 0x0b, 0x00, 0x00, 0x00, 0x01,
    0x00, 0x00, 0x00, 0x00, 0x00, 0x00, 0x00, 0x0c, 0x00, 0x00, 0x00, 0x5c, 0x04,
    0x00, 0x00, 0xec, 0x03, 0x00, 0x00, 0x8c, 0x03, 0x00, 0x00, 0x2c, 0x03, 0x00,
    0x00, 0xe0, 0x02, 0x00, 0x00, 0x58, 0x02, 0x00, 0x00, 0xe8, 0x01, 0x00, 0x00,
    0x9c, 0x01, 0x00, 0x00, 0x4c, 0x01, 0x00, 0x00, 0xc4, 0x00, 0x00, 0x00, 0x3c,
    0x00, 0x00, 0x00, 0x04, 0x00, 0x00, 0x00, 0xe2, 0xfb, 0xff, 0xff, 0x24, 0x00,
    0x00, 0x00, 0x0c, 0x00, 0x00, 0x00, 0x0c, 0x00, 0x00, 0x00, 0x04, 0x00, 0x00,
    0x00, 0xd4, 0xfb, 0xff, 0xff, 0x08, 0x00, 0x00, 0x00, 0x49, 0x64, 0x65, 0x6e,
    0x74, 0x69, 0x74, 0x79, 0x00, 0x00, 0x00, 0x00, 0x02, 0x00, 0x00, 0x00, 0x01,
    0x00, 0x00, 0x00, 0x01, 0x00, 0x00, 0x00, 0x16, 0xfc, 0xff, 0xff, 0x74, 0x00,
    0x00, 0x00, 0x0b, 0x00, 0x00, 0x00, 0x0c, 0x00, 0x00, 0x00, 0x04, 0x00, 0x00,
    0x00, 0x08, 0xfc, 0xff, 0xff, 0x5b, 0x00, 0x00, 0x00, 0x73, 0x65, 0x71, 0x75,
    0x65, 0x6e, 0x74, 0x69, 0x61, 0x6c, 0x5f, 0x33, 0x37, 0x2f, 0x64, 0x65, 0x6e,
    0x73, 0x65, 0x5f, 0x31, 0x31, 0x32, 0x2f, 0x4d, 0x61, 0x74, 0x4d, 0x75, 0x6c,
    0x3b, 0x73, 0x65, 0x71, 0x75, 0x65, 0x6e, 0x74, 0x69, 0x61, 0x6c, 0x5f, 0x33,
    0x37, 0x2f, 0x64, 0x65, 0x6e, 0x73, 0x65, 0x5f, 0x31, 0x31, 0x32, 0x2f, 0x42,
    0x69, 0x61, 0x73, 0x41, 0x64, 0x64, 0x3b, 0x73, 0x65, 0x71, 0x75, 0x65, 0x6e,
    0x74, 0x69, 0x61, 0x6c, 0x5f, 0x33, 0x37, 0x2f, 0x64, 0x65, 0x6e, 0x73, 0x65,
    0x5f, 0x31, 0x31, 0x32, 0x2f, 0x52, 0x65, 0x6c, 0x75, 0x00, 0x02, 0x00, 0x00,
    0x00, 0x01, 0x00, 0x00, 0x00, 0x20, 0x00, 0x00, 0x00, 0x9a, 0xfc, 0xff, 0xff,
    0x74, 0x00, 0x00, 0x00, 0x0a, 0x00, 0x00, 0x00, 0x0c, 0x00, 0x00, 0x00, 0x04,
    0x00, 0x00, 0x00, 0x8c, 0xfc, 0xff, 0xff, 0x5b, 0x00, 0x00, 0x00, 0x73, 0x65,
    0x71, 0x75, 0x65, 0x6e, 0x74, 0x69, 0x61, 0x6c, 0x5f, 0x33, 0x37, 0x2f, 0x64,
    0x65, 0x6e, 0x73, 0x65, 0x5f, 0x31, 0x31, 0x31, 0x2f, 0x4d, 0x61, 0x74, 0x4d,
    0x75, 0x6c, 0x3b, 0x73, 0x65, 0x71, 0x75, 0x65, 0x6e, 0x74, 0x69, 0x61, 0x6c,
    0x5f, 0x33, 0x37, 0x2f, 0x64, 0x65, 0x6e, 0x73, 0x65, 0x5f, 0x31, 0x31, 0x31,
    0x2f, 0x42, 0x69, 0x61, 0x73, 0x41, 0x64, 0x64, 0x3b, 0x73, 0x65, 0x71, 0x75,
    0x65, 0x6e, 0x74, 0x69, 0x61, 0x6c, 0x5f, 0x33, 0x37, 0x2f, 0x64, 0x65, 0x6e,
    0x73, 0x65, 0x5f, 0x31, 0x31, 0x31, 0x2f, 0x52, 0x65, 0x6c, 0x75, 0x00, 0x02,
    0x00, 0x00, 0x00, 0x01, 0x00, 0x00, 0x00, 0x20, 0x00, 0x00, 0x00, 0x1e, 0xfd,
    0xff, 0xff, 0x3c, 0x00, 0x00, 0x00, 0x09, 0x00, 0x00, 0x00, 0x0c, 0x00, 0x00,
    0x00, 0x04, 0x00, 0x00, 0x00, 0x10, 0xfd, 0xff, 0xff, 0x20, 0x00, 0x00, 0x00,
    0x73, 0x65, 0x71, 0x75, 0x65, 0x6e, 0x74, 0x69, 0x61, 0x6c, 0x5f, 0x33, 0x37,
    0x2f, 0x66, 0x6c, 0x61, 0x74, 0x74, 0x65, 0x6e, 0x5f, 0x33, 0x37, 0x2f, 0x52,
    0x65, 0x73, 0x68, 0x61, 0x70, 0x65, 0x00, 0x00, 0x00, 0x00, 0x02, 0x00, 0x00,
    0x00, 0x01, 0x00, 0x00, 0x00, 0x20, 0x00, 0x00, 0x00, 0x6a, 0xfd, 0xff, 0xff,
    0x38, 0x00, 0x00, 0x00, 0x08, 0x00, 0x00, 0x00, 0x0c, 0x00, 0x00, 0x00, 0x04,
    0x00, 0x00, 0x00, 0x5c, 0xfd, 0xff, 0xff, 0x1e, 0x00, 0x00, 0x00, 0x73, 0x65,
    0x71, 0x75, 0x65, 0x6e, 0x74, 0x69, 0x61, 0x6c, 0x5f, 0x33, 0x37, 0x2f, 0x64,
    0x65, 0x6e, 0x73, 0x65, 0x5f, 0x31, 0x31, 0x33, 0x2f, 0x4d, 0x61, 0x74, 0x4d,
    0x75, 0x6c, 0x00, 0x00, 0x02, 0x00, 0x00, 0x00, 0x01, 0x00, 0x00, 0x00, 0x20,
    0x00, 0x00, 0x00, 0x1e, 0xff, 0xff, 0xff, 0x00, 0x00, 0x00, 0x09, 0x58, 0x00,
    0x00, 0x00, 0x07, 0x00, 0x00, 0x00, 0x2c, 0x00, 0x00, 0x00, 0x04, 0x00, 0x00,
    0x00, 0x94, 0xff, 0xff, 0xff, 0x18, 0x00, 0x00, 0x00, 0x04, 0x00, 0x00, 0x00,
    0x01, 0x00, 0x00, 0x00, 0x00, 0x00, 0x00, 0x00, 0x00, 0x00, 0x00, 0x00, 0x00,
    0x00, 0x00, 0x00, 0x01, 0x00, 0x00, 0x00, 0x3d, 0xfe, 0x67, 0x3b, 0x1e, 0x00,
    0x00, 0x00, 0x73, 0x65, 0x71, 0x75, 0x65, 0x6e, 0x74, 0x69, 0x61, 0x6c, 0x5f,
    0x33, 0x37, 0x2f, 0x64, 0x65, 0x6e, 0x73, 0x65, 0x5f, 0x31, 0x31, 0x32, 0x2f,
    0x4d, 0x61, 0x74, 0x4d, 0x75, 0x6c, 0x00, 0x00, 0x02, 0x00, 0x00, 0x00, 0x20,
    0x00, 0x00, 0x00, 0x20, 0x00, 0x00, 0x00, 0x8a, 0xff, 0xff, 0xff, 0x00, 0x00,
    0x00, 0x09, 0x60, 0x00, 0x00, 0x00, 0x06, 0x00, 0x00, 0x00, 0x34, 0x00, 0x00,
    0x00, 0x10, 0x00, 0x00, 0x00, 0x0c, 0x00, 0x0c, 0x00, 0x00, 0x00, 0x00, 0x00,
    0x04, 0x00, 0x08, 0x00, 0x0c, 0x00, 0x00, 0x00, 0x14, 0x00, 0x00, 0x00, 0x04,
    0x00, 0x00, 0x00, 0x01, 0x00, 0x00, 0x00, 0x00, 0x00, 0x00, 0x00, 0x00, 0x00,
    0x00, 0x00, 0x01, 0x00, 0x00, 0x00, 0x62, 0xf1, 0x49, 0x3b, 0x1e, 0x00, 0x00,
    0x00, 0x73, 0x65, 0x71, 0x75, 0x65, 0x6e, 0x74, 0x69, 0x61, 0x6c, 0x5f, 0x33,
    0x37, 0x2f, 0x64, 0x65, 0x6e, 0x73, 0x65, 0x5f, 0x31, 0x31, 0x31, 0x2f, 0x4d,
    0x61, 0x74, 0x4d, 0x75, 0x6c, 0x00, 0x00, 0x02, 0x00, 0x00, 0x00, 0x20, 0x00,
    0x00, 0x00, 0x20, 0x00, 0x00, 0x00, 0x00, 0x00, 0x0e, 0x00, 0x18, 0x00, 0x08,
    0x00, 0x07, 0x00, 0x0c, 0x00, 0x10, 0x00, 0x14, 0x00, 0x0e, 0x00, 0x00, 0x00,
    0x00, 0x00, 0x00, 0x02, 0x38, 0x00, 0x00, 0x00, 0x05, 0x00, 0x00, 0x00, 0x0c,
    0x00, 0x00, 0x00, 0x04, 0x00, 0x00, 0x00, 0x98, 0xfe, 0xff, 0xff, 0x1e, 0x00,
    0x00, 0x00, 0x73, 0x65, 0x71, 0x75, 0x65, 0x6e, 0x74, 0x69, 0x61, 0x6c, 0x5f,
    0x33, 0x37, 0x2f, 0x66, 0x6c, 0x61, 0x74, 0x74, 0x65, 0x6e, 0x5f, 0x33, 0x37,
    0x2f, 0x43, 0x6f, 0x6e, 0x73, 0x74, 0x00, 0x00, 0x01, 0x00, 0x00, 0x00, 0x02,
    0x00, 0x00, 0x00, 0xea, 0xfe, 0xff, 0xff, 0x50, 0x00, 0x00, 0x00, 0x04, 0x00,
    0x00, 0x00, 0x0c, 0x00, 0x00, 0x00, 0x04, 0x00, 0x00, 0x00, 0xdc, 0xfe, 0xff,
    0xff, 0x37, 0x00, 0x00, 0x00, 0x73, 0x65, 0x71, 0x75, 0x65, 0x6e, 0x74, 0x69,
    0x61, 0x6c, 0x5f, 0x33, 0x37, 0x2f, 0x64, 0x65, 0x6e, 0x73, 0x65, 0x5f, 0x31,
    0x31, 0x33, 0x2f, 0x42, 0x69, 0x61, 0x73, 0x41, 0x64, 0x64, 0x2f, 0x52, 0x65,
    0x61, 0x64, 0x56, 0x61, 0x72, 0x69, 0x61, 0x62, 0x6c, 0x65, 0x4f, 0x70, 0x2f,
    0x72, 0x65, 0x73, 0x6f, 0x75, 0x72, 0x63, 0x65, 0x00, 0x01, 0x00, 0x00, 0x00,
    0x01, 0x00, 0x00, 0x00, 0x46, 0xff, 0xff, 0xff, 0x50, 0x00, 0x00, 0x00, 0x03,
    0x00, 0x00, 0x00, 0x0c, 0x00, 0x00, 0x00, 0x04, 0x00, 0x00, 0x00, 0x38, 0xff,
    0xff, 0xff, 0x37, 0x00, 0x00, 0x00, 0x73, 0x65, 0x71, 0x75, 0x65, 0x6e, 0x74,
    0x69, 0x61, 0x6c, 0x5f, 0x33, 0x37, 0x2f, 0x64, 0x65, 0x6e, 0x73, 0x65, 0x5f,
    0x31, 0x31, 0x32, 0x2f, 0x42, 0x69, 0x61, 0x73, 0x41, 0x64, 0x64, 0x2f, 0x52,
    0x65, 0x61, 0x64, 0x56, 0x61, 0x72, 0x69, 0x61, 0x62, 0x6c, 0x65, 0x4f, 0x70,
    0x2f, 0x72, 0x65, 0x73, 0x6f, 0x75, 0x72, 0x63, 0x65, 0x00, 0x01, 0x00, 0x00,
    0x00, 0x20, 0x00, 0x00, 0x00, 0xa2, 0xff, 0xff, 0xff, 0x50, 0x00, 0x00, 0x00,
    0x02, 0x00, 0x00, 0x00, 0x0c, 0x00, 0x00, 0x00, 0x04, 0x00, 0x00, 0x00, 0x94,
    0xff, 0xff, 0xff, 0x37, 0x00, 0x00, 0x00, 0x73, 0x65, 0x71, 0x75, 0x65, 0x6e,
    0x74, 0x69, 0x61, 0x6c, 0x5f, 0x33, 0x37, 0x2f, 0x64, 0x65, 0x6e, 0x73, 0x65,
    0x5f, 0x31, 0x31, 0x31, 0x2f, 0x42, 0x69, 0x61, 0x73, 0x41, 0x64, 0x64, 0x2f,
    0x52, 0x65, 0x61, 0x64, 0x56, 0x61, 0x72, 0x69, 0x61, 0x62, 0x6c, 0x65, 0x4f,
    0x70, 0x2f, 0x72, 0x65, 0x73, 0x6f, 0x75, 0x72, 0x63, 0x65, 0x00, 0x01, 0x00,
    0x00, 0x00, 0x20, 0x00, 0x00, 0x00, 0x00, 0x00, 0x0e, 0x00, 0x14, 0x00, 0x04,
    0x00, 0x00, 0x00, 0x08, 0x00, 0x0c, 0x00, 0x10, 0x00, 0x0e, 0x00, 0x00, 0x00,
    0x30, 0x00, 0x00, 0x00, 0x01, 0x00, 0x00, 0x00, 0x10, 0x00, 0x00, 0x00, 0x08,
    0x00, 0x00, 0x00, 0x04, 0x00, 0x04, 0x00, 0x04, 0x00, 0x00, 0x00, 0x10, 0x00,
    0x00, 0x00, 0x66, 0x6c, 0x61, 0x74, 0x74, 0x65, 0x6e, 0x5f, 0x33, 0x37, 0x5f,
    0x69, 0x6e, 0x70, 0x75, 0x74, 0x00, 0x00, 0x00, 0x00, 0x03, 0x00, 0x00, 0x00,
    0x01, 0x00, 0x00, 0x00, 0x10, 0x00, 0x00, 0x00, 0x02, 0x00, 0x00, 0x00, 0x02,
    0x00, 0x00, 0x00, 0x30, 0x00, 0x00, 0x00, 0x10, 0x00, 0x00, 0x00, 0x0c, 0x00,
    0x10, 0x00, 0x07, 0x00, 0x00, 0x00, 0x08, 0x00, 0x0c, 0x00, 0x0c, 0x00, 0x00,
    0x00, 0x00, 0x00, 0x00, 0x09, 0x09, 0x00, 0x00, 0x00, 0x09, 0x00, 0x00, 0x00,
    0x0c, 0x00, 0x0c, 0x00, 0x07, 0x00, 0x00, 0x00, 0x00, 0x00, 0x08, 0x00, 0x0c,
    0x00, 0x00, 0x00, 0x00, 0x00, 0x00, 0x16, 0x16, 0x00, 0x00, 0x00,
};
const int model_len = 4496;


#endif //MODEL_DATA_H