/**
  ******************************************************************************
  * @file    sine_model_data.c
  * @author  AST Embedded Analytics Research Platform
  * @date    Thu Nov 25 11:28:42 2021
  * @brief   AI Tool Automatic Code Generator for Embedded NN computing
  ******************************************************************************
  * @attention
  *
  * Copyright (c) 2021 STMicroelectronics.
  * All rights reserved.
  *
  * This software component is licensed by ST under Ultimate Liberty license
  * SLA0044, the "License"; You may not use this file except in compliance with
  * the License. You may obtain a copy of the License at:
  *                             www.st.com/SLA0044
  *
  ******************************************************************************
  */
#include "sine_model_data.h"
#include "ai_platform_interface.h"


AI_ALIGNED(32)
const ai_u64 s_sine_model_weights_array_u64[ 293 ] = {
  0x1b395f3c44b64746U, 0xf19ecb0019fae5dbU, 0x32d3af599aa62fbbU, 0xa96c006c4565a40eU,
  0xd62f26d5bebe0309U, 0x3d1516323bb714ccU, 0xcf0e1f31dcf0b01U, 0x3cd3d352c57e009U,
  0x3bf3e608c8cf0626U, 0xe10c2711222a1619U, 0xadcbd014c622e9d7U, 0xac452eddc0bc186bU,
  0x144a03de479521d9U, 0xb0c7342de8ebade2U, 0x41201b70db2026e0U, 0xfd7c6569584d5072U,
  0xa8473c1a1b21aea3U, 0xcc5c3faaafeecba8U, 0xb6d652e80560fd37U, 0x31fad133110627f3U,
  0x45d9ab21b773385aU, 0x54e54066e5c5e868U, 0xcc405def3b12abcU, 0x3c456e0710292101U,
  0xddb4641a19badbdeU, 0xc5254e2fb5601c03U, 0x55d3ab394605ce24U, 0xd006ef60421d4ac1U,
  0x51dafbb342d6e6b7U, 0x1edf4d3541ff4e39U, 0xe9e6ce1ddd9e0000U, 0xacb5c3db3ce7b725U,
  0x42e1310c61ae55f1U, 0xe35a44a6c32d5b31U, 0xd8002e3cc304cb0bU, 0x1fe028b7143baf2cU,
  0x26add6f9fb113419U, 0xab93cffd05dd54f1U, 0xdfc2b838ce044eb5U, 0xd35e9df5cf5e3bd2U,
  0xe6f6dd4caec22f2dU, 0x4fcc06e7cbb805e9U, 0x2309dbb2f010fe3dU, 0x4bca7ba35effcdfU,
  0xe567f411134ae2dcU, 0xdc120d1ec4c10e9U, 0x910d832cdeaf4efU, 0x3cdc0c84297c9e9U,
  0x2154090e4e27fa47U, 0xe337e850df45ffc0U, 0xa306bf0bd4ebd106U, 0xb22deb3ef803eeaaU,
  0xbaba3d433cd2580bU, 0x2d06e11d05d9071eU, 0x5110ba01540c0af3U, 0x20f853ebfc70d4d0U,
  0xc5d4f310041c980bU, 0x5cfed3eeca6404f2U, 0xe7b33a4929f3ad13U, 0xb08de9bac7912b9bU,
  0xcbea3ab2f2cbe61eU, 0x54f357bfb627bed3U, 0xd33519cc40da1738U, 0xb9e91de20e01b139U,
  0x7f3fce30c110c1eU, 0xd30afecf3125c2deU, 0xdfa21be14fb133d5U, 0x4c25a0c5054bc3d6U,
  0xb2fd609f820c9a9U, 0xb5d5053aa71353dcU, 0x3742e70c00b9f8e2U, 0x6051129ec34c75dU,
  0x5f46b6d73a07f6b1U, 0xd4f00909ffaeaea5U, 0x5d33efd9cfe8ada1U, 0x5aaf0240b11cc4feU,
  0x314e2d01f827aaabU, 0x18c2c0cdebb114b3U, 0x2111cac7aa1d113aU, 0x7fe30b72ed716ddU,
  0xfe02512652af3efU, 0x2da2e1fe49095fcfU, 0xa9b4b0064cb6a857U, 0xcb20eeb5e95630efU,
  0x15f6ff5f0c3c0febU, 0xf5dc4dbfbee235edU, 0xbc4529eb3cd4b8f6U, 0xacb84248e1b95dc3U,
  0xcddeef4f73eb8b0U, 0x365cd6adb7c9c919U, 0x3ec812b9f0dcd3e4U, 0x1e14f3e00b3a0d47U,
  0xd3143b1d604e6832U, 0x4950d59fe1c6ea12U, 0x580ed1cc3a10e31aU, 0x590ae40349b1f13bU,
  0x361ef1f501f05920U, 0xf9e75945bbbaef50U, 0xfad9f6cd5a410ae8U, 0x953218aef5f9033eU,
  0x38339f09b80252d8U, 0xf1a3abeb0da7c2a8U, 0x9bbee8eaf64bfbd0U, 0xea6149c4dc2a2b4bU,
  0xba17d7f2f7abdad4U, 0x4d03aa33d1b7e9c1U, 0x2242fa264defe4e4U, 0x3302cd2e02b5f8b8U,
  0x5cccccf8c864db44U, 0xc95eaf6660274d4cU, 0x54093951c612b2f3U, 0xbcab1a3734211746U,
  0x3ce219b0b8e5e91cU, 0x4a1d10383a5accefU, 0x3cf2c92d45c2af17U, 0x5fdbf2d72818e730U,
  0xaf9cef8656172281U, 0xbff95f21d4bcdaa4U, 0xffb4630ff283435U, 0x6ce60a324affde5aU,
  0x21231cf3923af3bfU, 0xbc4faa1105e3a8c1U, 0xa6153e04f760d7cfU, 0x48345c160541d533U,
  0x4854617f6169d604U, 0x1e2fec365e572f5dU, 0x9d00491e1cb35221U, 0x8e20951eed2f2bc9U,
  0xfffffb50fffff8e1U, 0xfffffba30000043dU, 0xfffffb3c00000238U, 0x554fffffec4U,
  0xfffff69300000b75U, 0xfffffef7fffffd7aU, 0x347fffffde9U, 0xebfffffbebU,
  0xfffff507000006b6U, 0x782fffffe26U, 0xfffff90c00000db2U, 0xfffff4fbfffffe71U,
  0xb29000006e1U, 0xcd2fffffeb8U, 0x1222ffffff40U, 0x7b7000000aaU,
  0x3f33df111de1e71fU, 0x3eedc52043191b3bU, 0x2434f9163cdbf6f3U, 0xcf141616de4313e8U,
  0xee21f0efdaf60cb3U, 0x8c804daf632f6e9U, 0x171234cbe630f621U, 0xdbf36fe43f40cecU,
  0x101f3041e9b0cde9U, 0x3adffac73613112aU, 0xface18f2bef5284bU, 0x29fbc7ee472e10edU,
  0xcf8000ccd2a013cU, 0xcdd4173cc8bbd133U, 0x3abd0a370437f424U, 0xc6349bccf5350f1bU,
  0xbd3110f2fef7131fU, 0xcfe5f2d9e43aea06U, 0x292f2e38c1fe270aU, 0xc3d305c2a3071f18U,
  0xe1e9dcf3190c16e1U, 0x14da3d0a0739f809U, 0xe5c51f3ebeb1c2c3U, 0xdd11262fc4bd18fcU,
  0xe236c3f129ce0d50U, 0xc11016b5ca1419f5U, 0x15ca242625cccd22U, 0xcb013ed215d90a10U,
  0x19ed0a21f3391ed5U, 0xe9d734d6f0e1d1e4U, 0x242bd8d80309312eU, 0xfc2a2102ca2631edU,
  0xc745b21620ede720U, 0x1223f6f74c28e7fcU, 0xd0c2d6ecede502bbU, 0x1ff447fb4bebd803U,
  0xd00fea17d831fadbU, 0xe604160a1926c6e5U, 0xcb35e506e8fde719U, 0xce11cbd842e7bfddU,
  0x2d10f9eef2d9f9b7U, 0x1ff038cfe9ba0c0eU, 0x14d6c5343d09U, 0xeb41db193133e8d4U,
  0xf84ef9f528b8ec4aU, 0x13d51fd8d30e2cf9U, 0x60a2f23d1f2262fU, 0xe13ff244b8fce018U,
  0xe22224fcf50101c9U, 0x291f17da202630ccU, 0xd307df41ef3dfeecU, 0xebc204fffb000ff0U,
  0xf309c4e0e633d21eU, 0x129191508fb10b2U, 0xe537e137da090dU, 0xd618d2e2e7e4fc1fU,
  0xd146ea3939f10138U, 0xf1f6da20e9fa2de1U, 0x2833f214ffdd1ef2U, 0xcedaf51620f80bf8U,
  0xe32536d2fdbd1514U, 0xd0dcf6f446293036U, 0x2af10641f8db0329U, 0xfed9edf320c7e925U,
  0xc51dcdd2d80410e4U, 0xe01e17342435f5ccU, 0x2ac93fdddc1fcf10U, 0x29bef7c13ce9dbe3U,
  0xf923492709f539f3U, 0xe61f1dd61ff30ae4U, 0x1c2d0e1c26c221fdU, 0xf0e1e2ea23dd34eeU,
  0x252a321d141e0b1dU, 0x190d3cdf2efc28eeU, 0xdb30ffea24c9f6c0U, 0x343fd907d71425e9U,
  0x1d0ce60ae02c064eU, 0xdfbace20e5eb31d7U, 0xf2c7195215e329f3U, 0xf23d2e4b9d3302bU,
  0xcdd3f5ca2e050611U, 0x3cf2603d1e23ac7U, 0xe53d2a2ad82ee9dbU, 0x38dad137e602443cU,
  0xdf943f52e01131dU, 0x2619d126e0133bdcU, 0xf9c5ceb60e170dd3U, 0xf1130d3ef6e7c221U,
  0xc33e5df2701fcd8U, 0xcf2fe213273fefe0U, 0xe707efebf6d1df3eU, 0x7a508df20f2293aU,
  0x3edb9f20532dd2fU, 0xfd08d8fa1b23f82eU, 0xac312eee0ddf2e07U, 0xd8cd3412e202fe0aU,
  0x2d061cf92fdc35d5U, 0x43db02ea1020fc33U, 0xfb2b2b0142e2ccfbU, 0xdf2b2e29e003f605U,
  0xff0adfde35eefdf9U, 0xfb22e0e5111bf5fcU, 0xff2a2aecd8be37bdU, 0xf1c0d312dd1fe232U,
  0x3f3149381123bf29U, 0x3bcce3e411e32e1eU, 0x2bff2632d4e53ed4U, 0x39441d0fd0c53045U,
  0xf1052dbdd12addc9U, 0xe2f283290349bcb0U, 0xdd00db15d3d43703U, 0x131d1603ffd2d349U,
  0xcaf0edcfc70119d2U, 0x13e381220ad5dde3U, 0x31e7fd2ff3213c3eU, 0xe4cac40758f4d14bU,
  0xfded3de62716c830U, 0xf91222de36c7f137U, 0x110fb3513e7db2bU, 0xfc1bfa2fe632f939U,
  0xf716c6df0f44e6e0U, 0x16dc2535c7d1e638U, 0xc739fb13c7d411edU, 0xcfdcc812eb2c2906U,
  0xf6c7f9cd1fd5e7f0U, 0xc60305f315f40decU, 0x51e2e01e424e6ddU, 0xd1fdd3fecbf6ebfdU,
  0xfffffe3b0000018fU, 0x43300000913U, 0x60bfffffb48U, 0x3edffffffc7U,
  0xffffff2500000beaU, 0xfffffe9dfffffccbU, 0x28000000510U, 0x3dfffffff3bU,
  0xfffffc1100000886U, 0x553ffffff65U, 0xfffffa19000000a1U, 0xfffffe820000075bU,
  0xfffffd5e00000313U, 0x7dc0000015fU, 0xfffffe4200000ba8U, 0xfffffd9c00000395U,
  0xbeca8c332d2f07d3U, 0x6d2ba7c3d9093a9bU, 0x468944196c1009dbU, 0x464d07f1816073cdU,
  0xfffffe95U,
};



AI_API_DECLARE_BEGIN

/*!
 * @brief Get network weights array pointer as a handle ptr.
 * @ingroup sine_model_data
 * @return a ai_handle pointer to the weights array
 */
AI_DEPRECATED
AI_API_ENTRY
ai_handle ai_sine_model_data_weights_get(void)
{
  static const ai_u8* const s_sine_model_weights_map[1 + 2] = {
    AI_PTR(AI_MAGIC_MARKER),
    AI_PTR(s_sine_model_weights_array_u64),
    AI_PTR(AI_MAGIC_MARKER)
  };

  return AI_HANDLE_PTR(s_sine_model_weights_map);

}


/*!
 * @brief Get network params configuration data structure.
 * @ingroup sine_model_data
 * @return true if a valid configuration is present, false otherwise
 */
AI_API_ENTRY
ai_bool ai_sine_model_data_params_get(ai_handle network, ai_network_params* params)
{
  if (!(network && params)) return false;
  
  static ai_buffer s_sine_model_data_map_activations[AI_SINE_MODEL_DATA_ACTIVATIONS_COUNT] = {
    AI_BUFFER_OBJ_INIT(AI_BUFFER_FORMAT_U8, 1, 1, AI_SINE_MODEL_DATA_ACTIVATIONS_SIZE, 1, NULL)
  };

  const ai_buffer_array map_activations = 
    AI_BUFFER_ARRAY_OBJ_INIT(AI_FLAG_NONE, AI_SINE_MODEL_DATA_ACTIVATIONS_COUNT, s_sine_model_data_map_activations);
  
  static ai_buffer s_sine_model_data_map_weights[AI_SINE_MODEL_DATA_WEIGHTS_COUNT] = {
    AI_BUFFER_OBJ_INIT(AI_BUFFER_FORMAT_U8, 1, 1, 2344, 1, s_sine_model_weights_array_u64),
    
  };

  const ai_buffer_array map_weights = 
    AI_BUFFER_ARRAY_OBJ_INIT(AI_FLAG_NONE, AI_SINE_MODEL_DATA_WEIGHTS_COUNT, s_sine_model_data_map_weights);

  return ai_platform_bind_network_params(network, params, &map_weights, &map_activations);
}


AI_API_DECLARE_END
